#include "magic_wand_model_data.h"

// We need to keep the data array aligned on some architectures.
#ifdef __has_attribute
#define HAVE_ATTRIBUTE(x) __has_attribute(x)
#else
#define HAVE_ATTRIBUTE(x) 0
#endif
#if HAVE_ATTRIBUTE(aligned) || (defined(__GNUC__) && !defined(__clang__))
#define DATA_ALIGN_ATTRIBUTE __attribute__((aligned(4)))
#else
#define DATA_ALIGN_ATTRIBUTE
#endif

const unsigned char g_magic_wand_model_data[] DATA_ALIGN_ATTRIBUTE = {
  // Paste the data of the char array in `src/model.cc` here
  0x08, 0x00, 0x00, 0x00, 0x54, 0x46, 0x4c, 0x33, 0x62, 0xff, 0xff, 0xff,
  0x03, 0x00, 0x00, 0x00, 0x10, 0x00, 0x00, 0x00, 0x24, 0x00, 0x00, 0x00,
  0x78, 0x00, 0x00, 0x00, 0x24, 0x00, 0x00, 0x00, 0x05, 0x00, 0x00, 0x00,
  0x78, 0x05, 0x00, 0x00, 0xb0, 0x04, 0x00, 0x00, 0xe0, 0x02, 0x00, 0x00,
  0x60, 0x02, 0x00, 0x00, 0x54, 0x01, 0x00, 0x00, 0x01, 0x00, 0x00, 0x00,
  0x78, 0x00, 0x00, 0x00, 0x13, 0x00, 0x00, 0x00, 0xd4, 0x2f, 0x00, 0x00,
  0xd0, 0x2f, 0x00, 0x00, 0xdc, 0x2e, 0x00, 0x00, 0x68, 0x2e, 0x00, 0x00,
  0xfc, 0x2d, 0x00, 0x00, 0xac, 0x11, 0x00, 0x00, 0x98, 0x10, 0x00, 0x00,
  0xbc, 0x0e, 0x00, 0x00, 0x60, 0x06, 0x00, 0x00, 0xfc, 0x05, 0x00, 0x00,
  0x78, 0x05, 0x00, 0x00, 0xa8, 0x2f, 0x00, 0x00, 0xa4, 0x2f, 0x00, 0x00,
  0xa0, 0x2f, 0x00, 0x00, 0x9c, 0x2f, 0x00, 0x00, 0x98, 0x2f, 0x00, 0x00,
  0x94, 0x2f, 0x00, 0x00, 0x90, 0x2f, 0x00, 0x00, 0x8c, 0x2f, 0x00, 0x00,
  0x0f, 0x00, 0x00, 0x00, 0x4d, 0x4c, 0x49, 0x52, 0x20, 0x43, 0x6f, 0x6e,
  0x76, 0x65, 0x72, 0x74, 0x65, 0x64, 0x2e, 0x00, 0x00, 0x00, 0x0e, 0x00,
  0x18, 0x00, 0x04, 0x00, 0x08, 0x00, 0x0c, 0x00, 0x10, 0x00, 0x14, 0x00,
  0x0e, 0x00, 0x00, 0x00, 0x14, 0x00, 0x00, 0x00, 0x5c, 0x00, 0x00, 0x00,
  0x60, 0x00, 0x00, 0x00, 0x64, 0x00, 0x00, 0x00, 0x84, 0x00, 0x00, 0x00,
  0x12, 0x00, 0x00, 0x00, 0x04, 0x2f, 0x00, 0x00, 0xa0, 0x2e, 0x00, 0x00,
  0xf8, 0x2d, 0x00, 0x00, 0x98, 0x2d, 0x00, 0x00, 0x30, 0x2d, 0x00, 0x00,
  0xdc, 0x10, 0x00, 0x00, 0xc0, 0x0f, 0x00, 0x00, 0xe4, 0x0d, 0x00, 0x00,
  0xa0, 0x05, 0x00, 0x00, 0x3c, 0x05, 0x00, 0x00, 0xb0, 0x04, 0x00, 0x00,
  0xe8, 0x03, 0x00, 0x00, 0x38, 0x03, 0x00, 0x00, 0xa4, 0x02, 0x00, 0x00,
  0x10, 0x02, 0x00, 0x00, 0x90, 0x01, 0x00, 0x00, 0xfc, 0x00, 0x00, 0x00,
  0x80, 0x00, 0x00, 0x00, 0x01, 0x00, 0x00, 0x00, 0x00, 0x00, 0x00, 0x00,
  0x01, 0x00, 0x00, 0x00, 0x11, 0x00, 0x00, 0x00, 0x08, 0x00, 0x00, 0x00,
  0x1c, 0x04, 0x00, 0x00, 0x58, 0x03, 0x00, 0x00, 0xc8, 0x02, 0x00, 0x00,
  0x24, 0x02, 0x00, 0x00, 0xac, 0x01, 0x00, 0x00, 0x10, 0x01, 0x00, 0x00,
  0x94, 0x00, 0x00, 0x00, 0x10, 0x00, 0x00, 0x00, 0x04, 0x00, 0x00, 0x00,
  0x6d, 0x61, 0x69, 0x6e, 0x00, 0x00, 0x00, 0x00, 0x8e, 0xff, 0xff, 0xff,
  0x00, 0x00, 0x00, 0x09, 0x04, 0x00, 0x00, 0x00, 0x1c, 0x00, 0x00, 0x00,
  0x10, 0x00, 0x00, 0x00, 0x04, 0x00, 0x00, 0x00, 0x4e, 0xd2, 0xff, 0xff,
  0x00, 0x00, 0x80, 0x3f, 0x01, 0x00, 0x00, 0x00, 0x11, 0x00, 0x00, 0x00,
  0x01, 0x00, 0x00, 0x00, 0x10, 0x00, 0x00, 0x00, 0xf6, 0xfb, 0xff, 0xff,
  0x00, 0x00, 0x00, 0x19, 0x01, 0x00, 0x00, 0x00, 0xce, 0xd1, 0xff, 0xff,
  0x10, 0x00, 0x00, 0x00, 0x12, 0x00, 0x00, 0x00, 0x14, 0x00, 0x00, 0x00,
  0x20, 0x00, 0x00, 0x00, 0x02, 0x00, 0x00, 0x00, 0x01, 0x00, 0x00, 0x00,
  0x03, 0x00, 0x00, 0x00, 0x08, 0x00, 0x00, 0x00, 0x49, 0x64, 0x65, 0x6e,
  0x74, 0x69, 0x74, 0x79, 0x00, 0x00, 0x00, 0x00, 0x08, 0xd2, 0xff, 0xff,
  0x00, 0x00, 0x0e, 0x00, 0x18, 0x00, 0x08, 0x00, 0x0c, 0x00, 0x10, 0x00,
  0x07, 0x00, 0x14, 0x00, 0x0e, 0x00, 0x00, 0x00, 0x00, 0x00, 0x00, 0x08,
  0x03, 0x00, 0x00, 0x00, 0x18, 0x00, 0x00, 0x00, 0x0c, 0x00, 0x00, 0x00,
  0x04, 0x00, 0x00, 0x00, 0xdc, 0xd1, 0xff, 0xff, 0x01, 0x00, 0x00, 0x00,
  0x10, 0x00, 0x00, 0x00, 0x03, 0x00, 0x00, 0x00, 0x0f, 0x00, 0x00, 0x00,
  0x05, 0x00, 0x00, 0x00, 0x02, 0x00, 0x00, 0x00, 0x46, 0xd2, 0xff, 0xff,
  0x10, 0x00, 0x00, 0x00, 0x11, 0x00, 0x00, 0x00, 0x14, 0x00, 0x00, 0x00,
  0x30, 0x00, 0x00, 0x00, 0x02, 0x00, 0x00, 0x00, 0x01, 0x00, 0x00, 0x00,
  0x03, 0x00, 0x00, 0x00, 0x1a, 0x00, 0x00, 0x00, 0x73, 0x65, 0x71, 0x75,
  0x65, 0x6e, 0x74, 0x69, 0x61, 0x6c, 0x2f, 0x64, 0x65, 0x6e, 0x73, 0x65,
  0x5f, 0x31, 0x2f, 0x42, 0x69, 0x61, 0x73, 0x41, 0x64, 0x64, 0x00, 0x00,
  0x38, 0xd2, 0xff, 0xff, 0xd6, 0xfd, 0xff, 0xff, 0x00, 0x00, 0x00, 0x08,
  0x03, 0x00, 0x00, 0x00, 0x24, 0x00, 0x00, 0x00, 0x18, 0x00, 0x00, 0x00,
  0x0c, 0x00, 0x00, 0x00, 0x00, 0x00, 0x06, 0x00, 0x08, 0x00, 0x07, 0x00,
  0x06, 0x00, 0x00, 0x00, 0x00, 0x00, 0x00, 0x01, 0x01, 0x00, 0x00, 0x00,
  0x0f, 0x00, 0x00, 0x00, 0x03, 0x00, 0x00, 0x00, 0x0e, 0x00, 0x00, 0x00,
  0x04, 0x00, 0x00, 0x00, 0x01, 0x00, 0x00, 0x00, 0xfe, 0xfc, 0xff, 0xff,
  0x00, 0x00, 0x00, 0x09, 0x01, 0x00, 0x00, 0x00, 0xd6, 0xd2, 0xff, 0xff,
  0x10, 0x00, 0x00, 0x00, 0x10, 0x00, 0x00, 0x00, 0x14, 0x00, 0x00, 0x00,
  0x2c, 0x00, 0x00, 0x00, 0x02, 0x00, 0x00, 0x00, 0x01, 0x00, 0x00, 0x00,
  0x10, 0x00, 0x00, 0x00, 0x15, 0x00, 0x00, 0x00, 0x73, 0x65, 0x71, 0x75,
  0x65, 0x6e, 0x74, 0x69, 0x61, 0x6c, 0x2f, 0x64, 0x65, 0x6e, 0x73, 0x65,
  0x2f, 0x52, 0x65, 0x6c, 0x75, 0x00, 0x00, 0x00, 0x1c, 0xd3, 0xff, 0xff,
  0x00, 0x00, 0x0a, 0x00, 0x10, 0x00, 0x04, 0x00, 0x08, 0x00, 0x0c, 0x00,
  0x0a, 0x00, 0x00, 0x00, 0x02, 0x00, 0x00, 0x00, 0x10, 0x00, 0x00, 0x00,
  0x04, 0x00, 0x00, 0x00, 0x01, 0x00, 0x00, 0x00, 0x0e, 0x00, 0x00, 0x00,
  0x02, 0x00, 0x00, 0x00, 0x0d, 0x00, 0x00, 0x00, 0x03, 0x00, 0x00, 0x00,
  0x7a, 0xfd, 0xff, 0xff, 0x00, 0x00, 0x00, 0x16, 0x01, 0x00, 0x00, 0x00,
  0x52, 0xd3, 0xff, 0xff, 0x10, 0x00, 0x00, 0x00, 0x0f, 0x00, 0x00, 0x00,
  0x14, 0x00, 0x00, 0x00, 0x30, 0x00, 0x00, 0x00, 0x02, 0x00, 0x00, 0x00,
  0x01, 0x00, 0x00, 0x00, 0x70, 0x00, 0x00, 0x00, 0x1a, 0x00, 0x00, 0x00,
  0x73, 0x65, 0x71, 0x75, 0x65, 0x6e, 0x74, 0x69, 0x61, 0x6c, 0x2f, 0x66,
  0x6c, 0x61, 0x74, 0x74, 0x65, 0x6e, 0x2f, 0x52, 0x65, 0x73, 0x68, 0x61,
  0x70, 0x65, 0x00, 0x00, 0x44, 0xd3, 0xff, 0xff, 0xe2, 0xfe, 0xff, 0xff,
  0x00, 0x00, 0x00, 0x05, 0x01, 0x00, 0x00, 0x00, 0x38, 0x00, 0x00, 0x00,
  0x2c, 0x00, 0x00, 0x00, 0x14, 0x00, 0x00, 0x00, 0x00, 0x00, 0x0e, 0x00,
  0x14, 0x00, 0x00, 0x00, 0x10, 0x00, 0x0c, 0x00, 0x08, 0x00, 0x04, 0x00,
  0x0e, 0x00, 0x00, 0x00, 0x03, 0x00, 0x00, 0x00, 0x01, 0x00, 0x00, 0x00,
  0x03, 0x00, 0x00, 0x00, 0x01, 0x00, 0x00, 0x00, 0x01, 0x00, 0x00, 0x00,
  0x0d, 0x00, 0x00, 0x00, 0x01, 0x00, 0x00, 0x00, 0x0c, 0x00, 0x00, 0x00,
  0xe2, 0xd3, 0xff, 0xff, 0x10, 0x00, 0x00, 0x00, 0x0e, 0x00, 0x00, 0x00,
  0x1c, 0x00, 0x00, 0x00, 0x40, 0x00, 0x00, 0x00, 0x04, 0x00, 0x00, 0x00,
  0x01, 0x00, 0x00, 0x00, 0x07, 0x00, 0x00, 0x00, 0x01, 0x00, 0x00, 0x00,
  0x10, 0x00, 0x00, 0x00, 0x22, 0x00, 0x00, 0x00, 0x73, 0x65, 0x71, 0x75,
  0x65, 0x6e, 0x74, 0x69, 0x61, 0x6c, 0x2f, 0x6d, 0x61, 0x78, 0x5f, 0x70,
  0x6f, 0x6f, 0x6c, 0x69, 0x6e, 0x67, 0x32, 0x64, 0x5f, 0x31, 0x2f, 0x4d,
  0x61, 0x78, 0x50, 0x6f, 0x6f, 0x6c, 0x00, 0x00, 0xe4, 0xd3, 0xff, 0xff,
  0xc2, 0xfe, 0xff, 0xff, 0x00, 0x00, 0x00, 0x01, 0x24, 0x00, 0x00, 0x00,
  0x18, 0x00, 0x00, 0x00, 0x04, 0x00, 0x00, 0x00, 0xb4, 0xfe, 0xff, 0xff,
  0x01, 0x00, 0x00, 0x00, 0x01, 0x00, 0x00, 0x00, 0x00, 0x00, 0x00, 0x01,
  0x01, 0x00, 0x00, 0x00, 0x0c, 0x00, 0x00, 0x00, 0x03, 0x00, 0x00, 0x00,
  0x0b, 0x00, 0x00, 0x00, 0x07, 0x00, 0x00, 0x00, 0x09, 0x00, 0x00, 0x00,
  0x72, 0xd4, 0xff, 0xff, 0x10, 0x00, 0x00, 0x00, 0x0d, 0x00, 0x00, 0x00,
  0x1c, 0x00, 0x00, 0x00, 0x2c, 0x00, 0x00, 0x00, 0x04, 0x00, 0x00, 0x00,
  0x01, 0x00, 0x00, 0x00, 0x15, 0x00, 0x00, 0x00, 0x01, 0x00, 0x00, 0x00,
  0x10, 0x00, 0x00, 0x00, 0x0c, 0x00, 0x00, 0x00, 0x74, 0x66, 0x6c, 0x2e,
  0x63, 0x6f, 0x6e, 0x76, 0x5f, 0x32, 0x64, 0x31, 0x00, 0x00, 0x00, 0x00,
  0xb8, 0xd4, 0xff, 0xff, 0x00, 0x00, 0x0e, 0x00, 0x1a, 0x00, 0x08, 0x00,
  0x0c, 0x00, 0x10, 0x00, 0x07, 0x00, 0x14, 0x00, 0x0e, 0x00, 0x00, 0x00,
  0x00, 0x00, 0x00, 0x05, 0x01, 0x00, 0x00, 0x00, 0x3c, 0x00, 0x00, 0x00,
  0x30, 0x00, 0x00, 0x00, 0x14, 0x00, 0x00, 0x00, 0x00, 0x00, 0x0e, 0x00,
  0x18, 0x00, 0x17, 0x00, 0x10, 0x00, 0x0c, 0x00, 0x08, 0x00, 0x04, 0x00,
  0x0e, 0x00, 0x00, 0x00, 0x03, 0x00, 0x00, 0x00, 0x03, 0x00, 0x00, 0x00,
  0x03, 0x00, 0x00, 0x00, 0x03, 0x00, 0x00, 0x00, 0x00, 0x00, 0x00, 0x01,
  0x01, 0x00, 0x00, 0x00, 0x0b, 0x00, 0x00, 0x00, 0x01, 0x00, 0x00, 0x00,
  0x0a, 0x00, 0x00, 0x00, 0x46, 0xff, 0xff, 0xff, 0x00, 0x00, 0x00, 0x11,
  0x01, 0x00, 0x00, 0x00, 0x1e, 0xd5, 0xff, 0xff, 0x10, 0x00, 0x00, 0x00,
  0x0c, 0x00, 0x00, 0x00, 0x1c, 0x00, 0x00, 0x00, 0x40, 0x00, 0x00, 0x00,
  0x04, 0x00, 0x00, 0x00, 0x01, 0x00, 0x00, 0x00, 0x15, 0x00, 0x00, 0x00,
  0x01, 0x00, 0x00, 0x00, 0x08, 0x00, 0x00, 0x00, 0x20, 0x00, 0x00, 0x00,
  0x73, 0x65, 0x71, 0x75, 0x65, 0x6e, 0x74, 0x69, 0x61, 0x6c, 0x2f, 0x6d,
  0x61, 0x78, 0x5f, 0x70, 0x6f, 0x6f, 0x6c, 0x69, 0x6e, 0x67, 0x32, 0x64,
  0x2f, 0x4d, 0x61, 0x78, 0x50, 0x6f, 0x6f, 0x6c, 0x00, 0x00, 0x00, 0x00,
  0x78, 0xd5, 0xff, 0xff, 0x00, 0x00, 0x0e, 0x00, 0x14, 0x00, 0x00, 0x00,
  0x08, 0x00, 0x0c, 0x00, 0x07, 0x00, 0x10, 0x00, 0x0e, 0x00, 0x00, 0x00,
  0x00, 0x00, 0x00, 0x01, 0x30, 0x00, 0x00, 0x00, 0x24, 0x00, 0x00, 0x00,
  0x10, 0x00, 0x00, 0x00, 0x0c, 0x00, 0x10, 0x00, 0x00, 0x00, 0x04, 0x00,
  0x08, 0x00, 0x0f, 0x00, 0x0c, 0x00, 0x00, 0x00, 0x01, 0x00, 0x00, 0x00,
  0x01, 0x00, 0x00, 0x00, 0x00, 0x00, 0x00, 0x01, 0x01, 0x00, 0x00, 0x00,
  0x0a, 0x00, 0x00, 0x00, 0x03, 0x00, 0x00, 0x00, 0x00, 0x00, 0x00, 0x00,
  0x06, 0x00, 0x00, 0x00, 0x08, 0x00, 0x00, 0x00, 0x00, 0x00, 0x0a, 0x00,
  0x0c, 0x00, 0x07, 0x00, 0x00, 0x00, 0x08, 0x00, 0x0a, 0x00, 0x00, 0x00,
  0x00, 0x00, 0x00, 0x03, 0x01, 0x00, 0x00, 0x00, 0xe2, 0xd5, 0xff, 0xff,
  0x10, 0x00, 0x00, 0x00, 0x0b, 0x00, 0x00, 0x00, 0x1c, 0x00, 0x00, 0x00,
  0x28, 0x00, 0x00, 0x00, 0x04, 0x00, 0x00, 0x00, 0x01, 0x00, 0x00, 0x00,
  0x40, 0x00, 0x00, 0x00, 0x03, 0x00, 0x00, 0x00, 0x08, 0x00, 0x00, 0x00,
  0x0b, 0x00, 0x00, 0x00, 0x74, 0x66, 0x6c, 0x2e, 0x63, 0x6f, 0x6e, 0x76,
  0x5f, 0x32, 0x64, 0x00, 0xcc, 0xd5, 0xff, 0xff, 0xc2, 0xd6, 0xff, 0xff,
  0x04, 0x00, 0x00, 0x00, 0x40, 0x00, 0x00, 0x00, 0x6d, 0x30, 0x26, 0xc0,
  0x0d, 0xbf, 0xc0, 0xbc, 0x04, 0xd4, 0x46, 0xc0, 0xd6, 0x8a, 0x48, 0xc0,
  0x0c, 0x69, 0x28, 0xc0, 0x00, 0xc1, 0x16, 0xbe, 0x91, 0x88, 0x51, 0x3d,
  0x55, 0x1e, 0x46, 0xc0, 0x31, 0x91, 0x45, 0xc0, 0x05, 0xb9, 0x31, 0x3e,
  0x1b, 0xf2, 0x09, 0xc0, 0x81, 0x92, 0x07, 0x3e, 0xc4, 0x75, 0xfd, 0xbf,
  0x3e, 0x04, 0xb9, 0xbc, 0x3d, 0x09, 0x02, 0xbd, 0xd1, 0x76, 0x6c, 0xbe,
  0x6a, 0xd6, 0xff, 0xff, 0x10, 0x00, 0x00, 0x00, 0x0a, 0x00, 0x00, 0x00,
  0x10, 0x00, 0x00, 0x00, 0x20, 0x00, 0x00, 0x00, 0x01, 0x00, 0x00, 0x00,
  0x10, 0x00, 0x00, 0x00, 0x0d, 0x00, 0x00, 0x00, 0x73, 0x74, 0x64, 0x2e,
  0x63, 0x6f, 0x6e, 0x73, 0x74, 0x61, 0x6e, 0x74, 0x31, 0x00, 0x00, 0x00,
  0x4c, 0xd6, 0xff, 0xff, 0x42, 0xd7, 0xff, 0xff, 0x04, 0x00, 0x00, 0x00,
  0x20, 0x00, 0x00, 0x00, 0xd9, 0x73, 0xd6, 0x3e, 0x41, 0xaa, 0xa4, 0xbf,
  0x3d, 0x2b, 0x5c, 0xbe, 0x5b, 0x38, 0x15, 0xc0, 0xeb, 0x3d, 0xee, 0xbf,
  0xd2, 0x7d, 0xbb, 0x3d, 0xd3, 0x48, 0x59, 0xbc, 0x79, 0x21, 0x0c, 0xc0,
  0xca, 0xd6, 0xff, 0xff, 0x10, 0x00, 0x00, 0x00, 0x09, 0x00, 0x00, 0x00,
  0x10, 0x00, 0x00, 0x00, 0x20, 0x00, 0x00, 0x00, 0x01, 0x00, 0x00, 0x00,
  0x08, 0x00, 0x00, 0x00, 0x0c, 0x00, 0x00, 0x00, 0x73, 0x74, 0x64, 0x2e,
  0x63, 0x6f, 0x6e, 0x73, 0x74, 0x61, 0x6e, 0x74, 0x00, 0x00, 0x00, 0x00,
  0xac, 0xd6, 0xff, 0xff, 0xa2, 0xd7, 0xff, 0xff, 0x04, 0x00, 0x00, 0x00,
  0x00, 0x08, 0x00, 0x00, 0x29, 0x15, 0xeb, 0xbd, 0x00, 0xd2, 0x02, 0xbf,
  0x1f, 0xcd, 0x89, 0x3e, 0xaf, 0xe2, 0x3f, 0x3e, 0xd6, 0x37, 0xf5, 0x3c,
  0x47, 0x37, 0x39, 0x3f, 0xec, 0x37, 0xe6, 0xbd, 0x5f, 0x28, 0x86, 0xbe,
  0xbd, 0x19, 0xdd, 0xbe, 0xec, 0xbd, 0x36, 0xbe, 0xed, 0x1f, 0x20, 0xbf,
  0x6c, 0x60, 0x36, 0x3d, 0x77, 0xca, 0x53, 0xbc, 0x70, 0x3e, 0x5b, 0xbd,
  0xfa, 0x27, 0xb8, 0x3d, 0x0a, 0x65, 0x9c, 0xbd, 0x4d, 0x2a, 0xa6, 0xbe,
  0x34, 0xf5, 0xa6, 0x3c, 0xc3, 0x88, 0x8c, 0xbe, 0x5c, 0xfd, 0xae, 0xbd,
  0x86, 0xeb, 0x9e, 0xbd, 0x2f, 0x1a, 0x1a, 0xbe, 0x09, 0x57, 0xe5, 0xbc,
  0x8d, 0x09, 0x79, 0x3c, 0x8b, 0xd1, 0x95, 0xbe, 0x74, 0xd1, 0x51, 0xbd,
  0x87, 0x66, 0x5a, 0xbe, 0xe0, 0xc4, 0xa4, 0x3c, 0x7d, 0x2c, 0xbf, 0xbb,
  0xee, 0x69, 0xd7, 0xbc, 0xf1, 0xe4, 0x4b, 0x3b, 0x21, 0x0a, 0x52, 0xbd,
  0xa9, 0xc5, 0x88, 0x3d, 0x7d, 0x35, 0xdd, 0x3d, 0x85, 0x95, 0x10, 0x3e,
  0x27, 0xd1, 0xbb, 0x3d, 0x20, 0x64, 0x1f, 0xbe, 0x42, 0x3e, 0x4a, 0x3c,
  0xa6, 0x9f, 0x8e, 0x3c, 0x51, 0xe2, 0x53, 0x3d, 0x1c, 0xec, 0xc3, 0x3b,
  0xc0, 0x88, 0xf9, 0x3c, 0x50, 0xab, 0x03, 0x3e, 0x92, 0xcb, 0x38, 0x3e,
  0xf6, 0x83, 0x06, 0xbd, 0x03, 0x55, 0x37, 0x3c, 0xcb, 0xb7, 0x8d, 0x3e,
  0xdf, 0x25, 0xb7, 0xbd, 0xb0, 0xf6, 0x86, 0xb9, 0x6b, 0xf1, 0x88, 0xbd,
  0x1e, 0x7e, 0xc1, 0x3c, 0x88, 0x91, 0x13, 0xbe, 0xd5, 0x3a, 0xc5, 0x3d,
  0x5d, 0xcc, 0x82, 0xbd, 0xba, 0xf9, 0x31, 0xbe, 0x76, 0x5f, 0x98, 0x3d,
  0x7f, 0x44, 0xa4, 0xbc, 0x21, 0x78, 0xf1, 0xbd, 0x5d, 0x3e, 0x74, 0xbd,
  0x1d, 0x74, 0xf5, 0xbd, 0xf3, 0x63, 0xa7, 0x3c, 0x10, 0x71, 0x90, 0xbd,
  0xeb, 0x75, 0xbe, 0x3d, 0x15, 0xea, 0x11, 0x3e, 0xcc, 0x64, 0x6d, 0x3d,
  0x28, 0x81, 0xc9, 0xbd, 0xa7, 0x85, 0x00, 0x3e, 0x8d, 0x56, 0x78, 0xbd,
  0x71, 0x68, 0x08, 0xbe, 0x62, 0x7b, 0xd2, 0xbe, 0x98, 0x08, 0x4d, 0xbf,
  0xf9, 0x50, 0x0f, 0x3e, 0x1f, 0xc0, 0x0c, 0x3e, 0xe2, 0xfb, 0x1d, 0x3f,
  0x58, 0x66, 0x5b, 0x3e, 0xc3, 0x9b, 0xac, 0xbc, 0x54, 0x3f, 0x20, 0xbd,
  0x15, 0xc5, 0x2e, 0xbe, 0xa6, 0xf8, 0xd3, 0xbd, 0x2c, 0x2c, 0xaa, 0x3e,
  0xb7, 0xc9, 0xe5, 0xbd, 0x2b, 0x5b, 0x01, 0xbf, 0xc9, 0x16, 0xf2, 0xbd,
  0x83, 0x66, 0x69, 0x3e, 0x46, 0xf7, 0x0c, 0x3c, 0x86, 0x16, 0x58, 0x3d,
  0xe8, 0xc2, 0xc3, 0x3e, 0xaa, 0x9c, 0xa9, 0xbe, 0x92, 0x07, 0x89, 0xbd,
  0x55, 0x96, 0xc7, 0xbe, 0x2e, 0x8c, 0x2e, 0xbe, 0xa3, 0xfb, 0x0d, 0xbe,
  0xff, 0x9e, 0x27, 0xbe, 0x8a, 0xe3, 0x15, 0xbd, 0xba, 0xb0, 0xce, 0x3d,
  0xb0, 0xb5, 0x53, 0xbe, 0x16, 0x06, 0xb7, 0xbe, 0x53, 0x73, 0xe2, 0xbd,
  0xca, 0x70, 0x10, 0xbf, 0xba, 0x76, 0xbe, 0xbe, 0x40, 0x63, 0x76, 0xbe,
  0xaf, 0xd0, 0x04, 0xbe, 0xe8, 0x76, 0x02, 0xbe, 0x83, 0x30, 0x5a, 0xbe,
  0xfa, 0xce, 0xfa, 0xbe, 0x5a, 0x5c, 0x93, 0xbe, 0x72, 0x6a, 0x02, 0xbf,
  0x6d, 0xa4, 0x00, 0x3a, 0x42, 0xb3, 0xbb, 0xbd, 0x08, 0x88, 0xc3, 0x3c,
  0xa8, 0x4b, 0x35, 0xbc, 0x96, 0xb8, 0xce, 0xbd, 0xa1, 0xa7, 0xfa, 0xbe,
  0x17, 0x0e, 0xa6, 0xbd, 0xe9, 0xb7, 0xd9, 0x3c, 0xcc, 0x34, 0x01, 0x3f,
  0x97, 0x3c, 0xc5, 0x3e, 0x4a, 0x3e, 0xeb, 0xbd, 0xbd, 0x61, 0x1c, 0x3e,
  0x36, 0x59, 0x9c, 0xbb, 0x20, 0x51, 0xb6, 0xbe, 0x10, 0xe5, 0xb2, 0x3d,
  0x44, 0x8c, 0x2e, 0x3c, 0x0c, 0xce, 0xbc, 0x3e, 0xd9, 0x06, 0x11, 0x3c,
  0x9b, 0x39, 0xb8, 0xbe, 0xd0, 0xb8, 0x5f, 0xbe, 0xa5, 0xaa, 0x9d, 0x3b,
  0xeb, 0xbe, 0xef, 0xbe, 0x80, 0x09, 0x88, 0xbd, 0x56, 0xe6, 0xc9, 0xbe,
  0x08, 0xf7, 0x4c, 0x3e, 0xdd, 0x34, 0x9b, 0x3d, 0xb0, 0xd3, 0x4b, 0x3e,
  0x49, 0xfa, 0xc3, 0x3d, 0x48, 0x6a, 0x05, 0x3e, 0x1e, 0x6a, 0x07, 0xbf,
  0x10, 0x91, 0x8e, 0x3d, 0x6c, 0x9e, 0x08, 0xbf, 0x25, 0x21, 0xef, 0x3e,
  0x98, 0xf5, 0xa5, 0xbd, 0xdf, 0x18, 0x63, 0xbe, 0x82, 0x07, 0x37, 0xbd,
  0xa7, 0x8b, 0x41, 0x3d, 0x70, 0xc3, 0xa6, 0xbe, 0x16, 0xf2, 0x0c, 0x3e,
  0xb7, 0x63, 0x6c, 0xbe, 0x2e, 0x90, 0xb7, 0x3e, 0x60, 0xb9, 0x83, 0xbd,
  0xba, 0x60, 0x83, 0xbe, 0x16, 0xac, 0x25, 0xbe, 0xa8, 0x79, 0x3b, 0xbc,
  0x5c, 0xf4, 0x4b, 0xbd, 0x0a, 0xfa, 0x1b, 0x3e, 0x01, 0x6f, 0x2b, 0xbd,
  0xb6, 0x65, 0xac, 0x3e, 0x80, 0xec, 0x79, 0xbd, 0xa3, 0xfe, 0xb9, 0xbd,
  0x33, 0x3d, 0x54, 0xbe, 0x37, 0x61, 0x75, 0xbd, 0xd7, 0xcf, 0x3c, 0xbe,
  0x4d, 0x13, 0xc7, 0x3d, 0x7e, 0x40, 0x64, 0xbe, 0x66, 0xd1, 0x3a, 0x3e,
  0xa1, 0x14, 0x05, 0xbe, 0xc1, 0x86, 0x14, 0xbe, 0x9a, 0xfe, 0x46, 0x3d,
  0xc8, 0xfc, 0xf5, 0xbe, 0xc6, 0xb4, 0xad, 0x3e, 0x52, 0xe1, 0x81, 0x3e,
  0x2a, 0x9d, 0xb1, 0x3e, 0xc6, 0xa1, 0x97, 0x3e, 0x06, 0xa7, 0x67, 0xbd,
  0xc7, 0x75, 0x74, 0xbc, 0xf8, 0x1c, 0x72, 0x3a, 0x1c, 0x4b, 0x38, 0xbe,
  0xfe, 0xdb, 0xad, 0xbd, 0x17, 0xfc, 0x7d, 0x3e, 0x18, 0x75, 0x15, 0xbe,
  0x28, 0xd4, 0xdd, 0x3d, 0x74, 0xf4, 0xda, 0xbd, 0x8d, 0x74, 0x39, 0x3d,
  0x18, 0x07, 0x89, 0x3e, 0x16, 0x4f, 0x19, 0xbf, 0x66, 0x02, 0xba, 0xbd,
  0x5d, 0x44, 0xa8, 0x3e, 0x46, 0x6b, 0x30, 0xbd, 0x81, 0x43, 0x0e, 0x3e,
  0x63, 0xbe, 0xcd, 0xbc, 0x0d, 0xae, 0x00, 0xbe, 0xdc, 0xf2, 0xfc, 0x3d,
  0x98, 0x59, 0xd8, 0xbe, 0x50, 0xbf, 0x24, 0xbe, 0xf2, 0x07, 0x28, 0x3e,
  0xa2, 0x44, 0x09, 0xbf, 0x55, 0xc2, 0x20, 0xbf, 0x53, 0x2f, 0xcc, 0xbc,
  0xb0, 0xd4, 0xe4, 0xbd, 0x2f, 0xae, 0x9c, 0x3e, 0xc6, 0xab, 0xc4, 0xbe,
  0xf2, 0x61, 0x95, 0xbc, 0xb2, 0x6d, 0xa8, 0xbe, 0xa2, 0x23, 0xe1, 0x3e,
  0xd8, 0xd7, 0xf0, 0xbe, 0xd0, 0x1f, 0xed, 0x3d, 0x05, 0xe6, 0xa4, 0xbe,
  0xac, 0x74, 0x8d, 0x3e, 0x10, 0xf7, 0x1b, 0xbd, 0xd7, 0xff, 0x27, 0xbe,
  0xbf, 0x19, 0x66, 0xbe, 0x1d, 0x59, 0x31, 0x3c, 0xea, 0x77, 0xa2, 0xbe,
  0x69, 0x2b, 0x9b, 0x3d, 0x4c, 0xea, 0xe0, 0xbe, 0x46, 0x85, 0x14, 0xbe,
  0x55, 0x93, 0x12, 0xbe, 0x60, 0xe1, 0x17, 0x3e, 0x6c, 0xb7, 0xad, 0xbe,
  0xe2, 0xb2, 0xa2, 0xbb, 0xb4, 0x17, 0x23, 0xbc, 0xfe, 0x31, 0xc1, 0x3d,
  0x95, 0xba, 0xde, 0xbe, 0xf3, 0x20, 0x10, 0xbc, 0xe6, 0x68, 0x90, 0x3d,
  0x6a, 0x5e, 0x97, 0xbe, 0x79, 0xd2, 0x37, 0xbe, 0x03, 0xe0, 0x89, 0xbd,
  0x3b, 0xd3, 0x4e, 0xbe, 0x02, 0x17, 0x90, 0x3e, 0x61, 0x7a, 0xa7, 0x3e,
  0x85, 0xfe, 0x8a, 0x3c, 0x11, 0xcb, 0xcf, 0x3b, 0x64, 0xd4, 0x14, 0xbf,
  0x12, 0xf5, 0xd3, 0xbd, 0x71, 0x9c, 0x41, 0xbe, 0x2b, 0x94, 0xeb, 0x3e,
  0x83, 0x5a, 0xbe, 0x3d, 0xa9, 0x0f, 0x26, 0xbe, 0x50, 0x08, 0x15, 0x3e,
  0x05, 0x24, 0x0c, 0x3d, 0x41, 0x91, 0x8e, 0xbe, 0x8b, 0x8c, 0x31, 0x3e,
  0x81, 0x41, 0xf2, 0xbd, 0xb3, 0xc0, 0x9c, 0xbc, 0xb4, 0x2f, 0xe9, 0xbd,
  0x11, 0x6b, 0x8d, 0xbe, 0x48, 0x81, 0x61, 0xbe, 0x9c, 0x60, 0x62, 0xbd,
  0x36, 0x70, 0x20, 0xbe, 0x2b, 0xe1, 0xe9, 0x3b, 0xdf, 0xdf, 0x19, 0xbe,
  0x2d, 0x15, 0xd4, 0x3e, 0xf2, 0xe3, 0x21, 0xbe, 0xb9, 0x1c, 0x36, 0xbe,
  0x19, 0xf2, 0x6a, 0xbe, 0xaa, 0xd3, 0x14, 0xbe, 0xd9, 0x33, 0x06, 0xbe,
  0x0d, 0x51, 0x17, 0xbe, 0x3e, 0xe8, 0x1b, 0xbe, 0xdb, 0x09, 0x77, 0x3e,
  0x58, 0x0c, 0x80, 0xbe, 0x6e, 0xe5, 0x5a, 0xbe, 0x88, 0x31, 0xf8, 0xbe,
  0xdd, 0x0d, 0x79, 0xbe, 0xd1, 0xba, 0x08, 0x3e, 0x0d, 0xff, 0x8b, 0x3e,
  0x3a, 0xca, 0x0c, 0x3e, 0x4b, 0x17, 0x95, 0xbd, 0x78, 0x28, 0x60, 0xbe,
  0x63, 0xe5, 0x99, 0x3d, 0x6a, 0xd1, 0xcb, 0xbe, 0x6c, 0x28, 0xce, 0xbc,
  0xc2, 0x1f, 0x84, 0x3b, 0x43, 0x5c, 0xd1, 0xbd, 0x34, 0x9f, 0x31, 0x3d,
  0x53, 0x6f, 0x13, 0xbd, 0xe8, 0xd8, 0x0b, 0xbe, 0x68, 0xf0, 0x73, 0x3d,
  0xf3, 0x35, 0xea, 0x3d, 0x42, 0x48, 0x08, 0xbe, 0x47, 0xa7, 0x2c, 0xbe,
  0x81, 0xbd, 0x11, 0xbe, 0xa5, 0x1f, 0xa3, 0xbd, 0x9c, 0x92, 0x8c, 0xbe,
  0xa1, 0x9c, 0x10, 0x3f, 0xa4, 0x3a, 0xd5, 0xbb, 0xa0, 0x4a, 0xca, 0x3e,
  0xc3, 0x6c, 0xeb, 0x3c, 0x32, 0x2c, 0x71, 0x3e, 0x4b, 0xbf, 0xbc, 0xbe,
  0x9b, 0xac, 0xc4, 0x3e, 0x69, 0xc5, 0x16, 0x3d, 0x9b, 0x39, 0x98, 0xbd,
  0x27, 0x49, 0x8b, 0xbd, 0x2e, 0xc3, 0x74, 0x3e, 0xe6, 0xfd, 0xe8, 0xbd,
  0x12, 0xb0, 0x86, 0xbe, 0x73, 0x74, 0xca, 0xbe, 0xe9, 0x6c, 0x64, 0x3c,
  0x79, 0xba, 0x32, 0xbe, 0xa2, 0x70, 0x94, 0x3c, 0x62, 0xf4, 0x16, 0xbe,
  0xbf, 0xaa, 0x1e, 0xbc, 0x04, 0xe0, 0x22, 0xbe, 0x1a, 0x7f, 0x9d, 0xbe,
  0x02, 0x7d, 0x71, 0xbd, 0x00, 0xba, 0xcc, 0xbc, 0xce, 0x6a, 0x01, 0x3d,
  0xf7, 0x41, 0xa8, 0x3c, 0x91, 0x3d, 0xb4, 0xbe, 0x3b, 0x26, 0x45, 0x3d,
  0x18, 0x1f, 0x0c, 0x3e, 0xdd, 0x7a, 0x32, 0xbe, 0x85, 0x25, 0xd0, 0xbd,
  0x8e, 0xf1, 0x8b, 0x3d, 0x12, 0xa4, 0x27, 0x3c, 0x25, 0xbd, 0xb0, 0x3e,
  0x11, 0x22, 0x78, 0xbd, 0x1c, 0xcd, 0x0d, 0xbd, 0x0e, 0x71, 0x71, 0xbd,
  0x01, 0x40, 0xc8, 0xbd, 0x3f, 0x8e, 0xd1, 0xbe, 0xf5, 0x06, 0x7b, 0xbe,
  0x06, 0xc0, 0x31, 0xbf, 0xf3, 0x44, 0x9f, 0xbe, 0xdb, 0xae, 0x4c, 0xbe,
  0xf4, 0x79, 0x05, 0xbf, 0xc2, 0x5a, 0x85, 0xbe, 0x61, 0x01, 0xea, 0xbd,
  0x4f, 0x9b, 0x09, 0x3f, 0xaa, 0x3a, 0x56, 0xbe, 0x2f, 0x69, 0x0c, 0xbe,
  0x78, 0x34, 0x83, 0xbe, 0x1f, 0x71, 0x62, 0xbe, 0x4c, 0x27, 0x4a, 0xbf,
  0xd0, 0x37, 0xca, 0x3d, 0x79, 0x3a, 0x47, 0x3e, 0xfc, 0x00, 0x7b, 0x3e,
  0x54, 0xeb, 0xe2, 0x3e, 0xe9, 0x92, 0xd1, 0x3e, 0xa5, 0x36, 0x8c, 0x3c,
  0xb6, 0xf4, 0x5e, 0x3d, 0x9e, 0x64, 0xd1, 0xbe, 0xe8, 0x3a, 0x67, 0x3d,
  0xe1, 0xdb, 0x99, 0xbd, 0xbe, 0x41, 0x26, 0x3d, 0xe3, 0xf3, 0xb9, 0x3d,
  0xd6, 0xfa, 0x1b, 0xbd, 0x35, 0x80, 0x3e, 0xbd, 0x8b, 0xa6, 0x94, 0xbc,
  0xa8, 0xf9, 0x9c, 0x3e, 0x8c, 0x39, 0x70, 0xbe, 0xb9, 0x3e, 0x1d, 0xbe,
  0x22, 0x3e, 0xf5, 0x3d, 0x41, 0xf9, 0xd0, 0xbd, 0x66, 0xd8, 0x88, 0xbe,
  0x15, 0x73, 0xa3, 0x3d, 0xb8, 0x94, 0xda, 0xbe, 0x98, 0x94, 0xa0, 0xbe,
  0x09, 0x60, 0xd4, 0xbd, 0x6e, 0x24, 0x18, 0xbe, 0x65, 0xdd, 0x55, 0x3d,
  0x4a, 0xab, 0xa1, 0xbd, 0x5d, 0x00, 0x55, 0xbf, 0x59, 0xb2, 0xaf, 0xbd,
  0xc2, 0x6d, 0xef, 0xbe, 0x6a, 0xb0, 0x32, 0x3e, 0xd7, 0xa9, 0xd4, 0xbd,
  0xb3, 0x32, 0x36, 0xbc, 0x72, 0x01, 0x0f, 0xbe, 0x3c, 0xde, 0xdc, 0xbc,
  0xdb, 0xc2, 0xac, 0xbe, 0x5f, 0xfb, 0xc8, 0x3e, 0xa6, 0x5d, 0x00, 0xbf,
  0x7e, 0x7b, 0x59, 0xbe, 0xc3, 0x1f, 0x1d, 0x3e, 0xe9, 0xab, 0xcf, 0xbd,
  0x67, 0xb1, 0x56, 0xbd, 0x36, 0xbd, 0x19, 0xbe, 0x22, 0x48, 0x37, 0xbe,
  0x77, 0x62, 0x44, 0x3d, 0xe9, 0x63, 0xbe, 0xbe, 0x2a, 0x66, 0x5d, 0xbc,
  0x9f, 0xa2, 0xfe, 0xbd, 0xbd, 0x80, 0x48, 0xbe, 0x22, 0x07, 0x06, 0x3d,
  0x22, 0x64, 0x30, 0x3d, 0x5b, 0x6a, 0xb0, 0x3e, 0x3a, 0xd9, 0x33, 0x3f,
  0xfc, 0xd3, 0xa0, 0xbe, 0xfa, 0x29, 0x8c, 0xbd, 0x11, 0x6c, 0x82, 0x3e,
  0x3b, 0x26, 0x88, 0xbe, 0xea, 0x1d, 0xea, 0xbd, 0xa5, 0x38, 0xfb, 0xbd,
  0x79, 0x2f, 0x37, 0x3e, 0x70, 0xa4, 0x27, 0xbe, 0x9f, 0x8e, 0xa5, 0xbe,
  0x76, 0x54, 0x2b, 0xbe, 0x72, 0x76, 0x01, 0xbe, 0x36, 0x57, 0xc3, 0xbd,
  0x81, 0xd8, 0xa6, 0x3c, 0xc8, 0xb8, 0x19, 0xbe, 0xeb, 0xf8, 0x36, 0x3e,
  0x80, 0xa4, 0x4e, 0xbe, 0x6d, 0x06, 0x14, 0xbe, 0x58, 0xe5, 0x70, 0xbe,
  0x01, 0xd2, 0x3e, 0xbe, 0x9c, 0xf7, 0x14, 0x3e, 0xf9, 0xd4, 0xd2, 0x3d,
  0x8d, 0x45, 0x0a, 0xbe, 0x04, 0x65, 0x85, 0x3e, 0x2c, 0x11, 0x73, 0xbe,
  0x6d, 0xcf, 0xda, 0x3d, 0xe9, 0x6b, 0x55, 0xbe, 0x77, 0x48, 0x80, 0xbe,
  0x9d, 0x3b, 0x4b, 0xbe, 0xa1, 0x3c, 0x3d, 0xbe, 0xb1, 0x31, 0x8a, 0xbe,
  0x2d, 0x14, 0x20, 0x3d, 0xea, 0x5f, 0xe4, 0xbe, 0x79, 0xca, 0xb2, 0xbe,
  0x06, 0x8f, 0x0a, 0xbf, 0x9b, 0x3c, 0xf8, 0xbd, 0x9b, 0x08, 0x6e, 0xbd,
  0xdb, 0x6d, 0x2a, 0xbe, 0x2c, 0x36, 0xe4, 0xbd, 0x36, 0x7c, 0xbd, 0x3e,
  0xa4, 0x54, 0xae, 0xb9, 0xf8, 0xe5, 0x09, 0x3e, 0xa5, 0xbf, 0x03, 0x3e,
  0xd5, 0x71, 0x10, 0xbd, 0x01, 0x18, 0xb8, 0xbd, 0xc5, 0xae, 0x52, 0xbe,
  0xd3, 0xdf, 0xbd, 0xbd, 0xd0, 0x65, 0xd5, 0xbd, 0x92, 0x1c, 0xa0, 0xbe,
  0x3b, 0xa7, 0xe9, 0xbc, 0xc6, 0x28, 0x9a, 0xbd, 0x40, 0xa0, 0x2d, 0x3e,
  0x16, 0x54, 0x1c, 0x3e, 0x9a, 0x5e, 0x9c, 0xbd, 0xb9, 0x5a, 0x9b, 0xbd,
  0x66, 0x88, 0xc9, 0xbd, 0x90, 0x93, 0xc8, 0xbd, 0xac, 0x65, 0x21, 0x3e,
  0x10, 0x55, 0x2e, 0x3b, 0xcc, 0xad, 0x63, 0x3d, 0x66, 0xc7, 0xc4, 0xbc,
  0x8d, 0x11, 0xd6, 0xbd, 0x0d, 0x4c, 0x05, 0x3d, 0xed, 0xd0, 0xbb, 0xbd,
  0x94, 0x09, 0x83, 0x3c, 0xa0, 0x33, 0x51, 0xbd, 0xf9, 0x60, 0xc7, 0x3d,
  0x6f, 0x16, 0x9f, 0x3b, 0x80, 0xc8, 0x9c, 0xbc, 0x32, 0xf3, 0xb4, 0x3b,
  0x12, 0x27, 0x15, 0xbe, 0x5c, 0xb8, 0x71, 0xbd, 0xd8, 0xc5, 0x78, 0x3e,
  0x32, 0xda, 0x1e, 0x3e, 0x6c, 0x39, 0x1a, 0xbe, 0x7a, 0xc4, 0xa5, 0x3d,
  0xba, 0xfa, 0x7c, 0xbd, 0xf8, 0x67, 0x16, 0xbe, 0x48, 0xf3, 0xfc, 0x3d,
  0x58, 0xc7, 0xa6, 0x3b, 0x59, 0x92, 0xe3, 0x3d, 0x4e, 0x69, 0x7d, 0x3e,
  0x75, 0xbd, 0xaa, 0xbd, 0x1b, 0x95, 0xd0, 0x3d, 0x94, 0xae, 0x86, 0x3d,
  0xd9, 0xf9, 0xc6, 0xbd, 0x31, 0xd1, 0x80, 0xbd, 0x84, 0x3d, 0x42, 0x3c,
  0xcf, 0x4f, 0x32, 0x3e, 0xc1, 0xda, 0x42, 0xbc, 0xb2, 0xf6, 0x02, 0xbd,
  0x5f, 0x87, 0xce, 0xbd, 0x1a, 0xe6, 0xcb, 0x3e, 0xb3, 0xb6, 0x22, 0x3f,
  0xea, 0x90, 0x64, 0x3d, 0x43, 0x9b, 0x94, 0xbd, 0x2d, 0x81, 0x18, 0xbd,
  0x7a, 0x36, 0xaa, 0x3e, 0x66, 0xe2, 0x2a, 0xbe, 0x6a, 0x58, 0x2a, 0xbe,
  0x8f, 0xd5, 0xa6, 0xba, 0xc2, 0x40, 0x9b, 0xbe, 0xa0, 0xee, 0x1b, 0xbe,
  0xdf, 0xc1, 0x2b, 0xbe, 0x6e, 0x98, 0xdb, 0xbb, 0x7f, 0xb1, 0x7c, 0x3d,
  0x53, 0x63, 0xa4, 0x3d, 0x43, 0x48, 0x81, 0xbe, 0x0b, 0xfe, 0x71, 0xbd,
  0x0b, 0xdb, 0xc1, 0xb9, 0xfd, 0x0a, 0x66, 0xbe, 0x31, 0x51, 0x5b, 0xbd,
  0x84, 0x26, 0x82, 0xbc, 0x68, 0xfd, 0x6f, 0x3d, 0x51, 0xee, 0xec, 0x3d,
  0x36, 0x92, 0x10, 0xbe, 0x1d, 0xdb, 0xab, 0xbd, 0xdd, 0xe1, 0x85, 0x3e,
  0x77, 0x65, 0x44, 0xbe, 0x34, 0x7b, 0x2d, 0xbe, 0xf0, 0x76, 0xc0, 0xbd,
  0x09, 0x37, 0x42, 0xbd, 0xae, 0xcb, 0xbd, 0x3d, 0xff, 0x23, 0xeb, 0xbd,
  0x0a, 0xdf, 0xff, 0xff, 0x10, 0x00, 0x00, 0x00, 0x08, 0x00, 0x00, 0x00,
  0x1c, 0x00, 0x00, 0x00, 0x38, 0x00, 0x00, 0x00, 0x04, 0x00, 0x00, 0x00,
  0x10, 0x00, 0x00, 0x00, 0x04, 0x00, 0x00, 0x00, 0x01, 0x00, 0x00, 0x00,
  0x08, 0x00, 0x00, 0x00, 0x1a, 0x00, 0x00, 0x00, 0x73, 0x65, 0x71, 0x75,
  0x65, 0x6e, 0x74, 0x69, 0x61, 0x6c, 0x2f, 0x63, 0x6f, 0x6e, 0x76, 0x32,
  0x64, 0x5f, 0x31, 0x2f, 0x43, 0x6f, 0x6e, 0x76, 0x32, 0x44, 0x00, 0x00,
  0x04, 0xdf, 0xff, 0xff, 0xfa, 0xdf, 0xff, 0xff, 0x04, 0x00, 0x00, 0x00,
  0x80, 0x01, 0x00, 0x00, 0x07, 0x40, 0x4e, 0x3e, 0xa0, 0x08, 0x1e, 0xbe,
  0x5f, 0x0c, 0x03, 0xbe, 0xcb, 0x9f, 0x80, 0xbe, 0xce, 0xd3, 0x02, 0x3d,
  0xdc, 0xba, 0xc3, 0xbd, 0x47, 0x4c, 0x16, 0x3f, 0x15, 0x6d, 0x56, 0x3e,
  0xef, 0xb0, 0xb4, 0x3d, 0x3d, 0x37, 0x83, 0xbd, 0x6a, 0xd5, 0xea, 0x3c,
  0x53, 0x6b, 0xbe, 0x3d, 0xb8, 0x6f, 0x62, 0xbc, 0x71, 0x8a, 0x07, 0xbd,
  0xba, 0x74, 0x07, 0xbd, 0xc0, 0x19, 0x9e, 0xbe, 0xae, 0xe8, 0x08, 0xbf,
  0x71, 0xec, 0x06, 0xbe, 0x00, 0xc3, 0x80, 0x3e, 0xbb, 0x96, 0x9d, 0x3e,
  0x01, 0x41, 0x01, 0xbe, 0x1f, 0xa0, 0x8a, 0x3d, 0x6e, 0x40, 0x58, 0x3e,
  0xbc, 0x9a, 0x70, 0x3e, 0xf6, 0x6a, 0x7a, 0xbc, 0xad, 0x4e, 0x2d, 0xbe,
  0x63, 0x3e, 0x55, 0xbe, 0x6f, 0xa7, 0x97, 0xbd, 0x26, 0x53, 0xd9, 0x3c,
  0xf6, 0x09, 0xda, 0xbd, 0x2c, 0xbf, 0x9c, 0x3e, 0x93, 0x59, 0x93, 0x3e,
  0xd1, 0xa2, 0x61, 0x3e, 0xf2, 0xba, 0x4d, 0xbd, 0xde, 0x02, 0x50, 0x3d,
  0x85, 0x1a, 0x3b, 0x3e, 0x68, 0xba, 0x11, 0xbf, 0xfc, 0x02, 0x6f, 0xbc,
  0x36, 0xec, 0xa6, 0x3d, 0x3c, 0xad, 0x8c, 0xb9, 0xb7, 0x2e, 0xe3, 0x3d,
  0x1a, 0x3a, 0xba, 0x3d, 0xcb, 0x91, 0xec, 0x3e, 0x53, 0xe8, 0x11, 0xbd,
  0xbb, 0xae, 0xc4, 0xbd, 0x49, 0x74, 0x0c, 0x3e, 0x23, 0x6c, 0x53, 0xbd,
  0x64, 0x44, 0x2c, 0xbd, 0xea, 0xfe, 0x2d, 0x3e, 0x15, 0x89, 0xfe, 0xbd,
  0x2e, 0x9a, 0xb1, 0xbd, 0x07, 0xcb, 0xaa, 0x3e, 0x40, 0x72, 0x0f, 0xbe,
  0x74, 0xf4, 0xd1, 0x3c, 0xc4, 0x4e, 0x75, 0xbe, 0x2f, 0x9a, 0x91, 0xbd,
  0xec, 0x0f, 0x8f, 0x3e, 0xf8, 0x58, 0xbc, 0xbe, 0x16, 0x98, 0x82, 0x3e,
  0x78, 0xf1, 0xe8, 0x3c, 0x1e, 0xa3, 0x9e, 0x3e, 0x64, 0xdd, 0x51, 0x3d,
  0xba, 0x94, 0x97, 0xbd, 0x5a, 0xc5, 0xf6, 0x3e, 0x3d, 0x65, 0x5d, 0x3d,
  0x17, 0x7f, 0x67, 0x3e, 0x68, 0xad, 0x35, 0xbe, 0x91, 0x20, 0x20, 0x3e,
  0xe6, 0xce, 0xfd, 0x3c, 0x6f, 0x17, 0x6c, 0xbe, 0x81, 0xf0, 0x2c, 0xbe,
  0x5c, 0x43, 0xb9, 0xbe, 0x1b, 0x3f, 0x28, 0x3e, 0x3b, 0x09, 0x97, 0x3e,
  0xbe, 0x9a, 0x3e, 0x3e, 0x46, 0xfc, 0x53, 0x3e, 0xa7, 0x46, 0x88, 0xbd,
  0xbb, 0x99, 0xdc, 0x3d, 0x42, 0x59, 0xb5, 0xbe, 0x66, 0x1b, 0x2b, 0xbe,
  0x30, 0x30, 0x5b, 0xbe, 0xf8, 0x1e, 0x67, 0x3c, 0xfc, 0x4c, 0x06, 0xbe,
  0x17, 0x09, 0x3f, 0xbe, 0x27, 0x65, 0x60, 0xbe, 0xfd, 0x65, 0xa6, 0x3c,
  0x05, 0xa1, 0xa5, 0xbc, 0x1f, 0x9d, 0xcb, 0xbd, 0x7a, 0x64, 0xb5, 0xbd,
  0x19, 0xf2, 0x0f, 0xbe, 0xa0, 0xc0, 0x3d, 0x3d, 0xaf, 0xcc, 0x97, 0x3d,
  0x1b, 0xa0, 0xcb, 0x3c, 0x1a, 0xb0, 0xf8, 0x3d, 0xb7, 0xca, 0x32, 0x3e,
  0xf8, 0xeb, 0x44, 0x3e, 0xe2, 0xe0, 0xff, 0xff, 0x10, 0x00, 0x00, 0x00,
  0x07, 0x00, 0x00, 0x00, 0x1c, 0x00, 0x00, 0x00, 0x38, 0x00, 0x00, 0x00,
  0x04, 0x00, 0x00, 0x00, 0x08, 0x00, 0x00, 0x00, 0x04, 0x00, 0x00, 0x00,
  0x03, 0x00, 0x00, 0x00, 0x01, 0x00, 0x00, 0x00, 0x18, 0x00, 0x00, 0x00,
  0x73, 0x65, 0x71, 0x75, 0x65, 0x6e, 0x74, 0x69, 0x61, 0x6c, 0x2f, 0x63,
  0x6f, 0x6e, 0x76, 0x32, 0x64, 0x2f, 0x43, 0x6f, 0x6e, 0x76, 0x32, 0x44,
  0x00, 0x00, 0x00, 0x00, 0xdc, 0xe0, 0xff, 0xff, 0xd2, 0xe1, 0xff, 0xff,
  0x04, 0x00, 0x00, 0x00, 0xc0, 0x00, 0x00, 0x00, 0x61, 0x93, 0x64, 0x3c,
  0xb3, 0x18, 0x18, 0x3e, 0xd1, 0xe8, 0x2e, 0xbe, 0x3e, 0x07, 0x65, 0x3e,
  0x7c, 0xed, 0x85, 0xbe, 0xe8, 0x84, 0x86, 0x3e, 0x19, 0x18, 0x01, 0xbf,
  0x65, 0x2d, 0xcc, 0xbe, 0x61, 0x60, 0x74, 0x3d, 0xbb, 0x7c, 0x8a, 0xbe,
  0x1c, 0x2e, 0xc8, 0xbe, 0x1a, 0x34, 0xb2, 0xbe, 0xe8, 0x3d, 0xfb, 0xbd,
  0x8a, 0x63, 0xd5, 0x3d, 0xec, 0x39, 0xd6, 0xbe, 0xbf, 0x35, 0xa2, 0x3e,
  0x60, 0x88, 0x93, 0x3d, 0xa9, 0xf3, 0x4c, 0xbe, 0x49, 0x60, 0xdc, 0x3c,
  0xc4, 0xc8, 0x7d, 0x3e, 0xa0, 0x70, 0x6a, 0xbe, 0xac, 0xba, 0x7d, 0x3e,
  0x7a, 0x45, 0xb6, 0x3d, 0x1c, 0x9c, 0xdc, 0x3e, 0xc2, 0x8d, 0xc8, 0x3d,
  0xd8, 0xd7, 0x25, 0x3e, 0x50, 0xbf, 0xe9, 0xbe, 0x47, 0x50, 0xce, 0xbe,
  0xdc, 0x4a, 0xc1, 0xbd, 0x12, 0xb2, 0x84, 0x3e, 0x55, 0x58, 0x04, 0xbd,
  0xc3, 0xf2, 0xab, 0x3e, 0x71, 0x8c, 0x06, 0x3d, 0x5b, 0x67, 0x9b, 0xbd,
  0x9b, 0x87, 0x26, 0xbc, 0xdc, 0xa0, 0x5a, 0x3e, 0xdd, 0x5e, 0x89, 0xbe,
  0x6a, 0xb5, 0x78, 0x3e, 0x28, 0x5f, 0x36, 0x3e, 0xae, 0x8d, 0xc7, 0x3e,
  0xfd, 0xb8, 0x6e, 0x3d, 0x62, 0xbf, 0x92, 0x3e, 0xd0, 0xcb, 0xe0, 0x3d,
  0x25, 0x8d, 0xd9, 0xbe, 0x24, 0x75, 0x2b, 0xbd, 0xd1, 0x43, 0xce, 0x3e,
  0x8c, 0xf4, 0xe1, 0x3e, 0xe8, 0x4f, 0xc8, 0x3e, 0xfa, 0xe1, 0xff, 0xff,
  0x10, 0x00, 0x00, 0x00, 0x06, 0x00, 0x00, 0x00, 0x14, 0x00, 0x00, 0x00,
  0x30, 0x00, 0x00, 0x00, 0x02, 0x00, 0x00, 0x00, 0x03, 0x00, 0x00, 0x00,
  0x10, 0x00, 0x00, 0x00, 0x19, 0x00, 0x00, 0x00, 0x73, 0x65, 0x71, 0x75,
  0x65, 0x6e, 0x74, 0x69, 0x61, 0x6c, 0x2f, 0x64, 0x65, 0x6e, 0x73, 0x65,
  0x5f, 0x31, 0x2f, 0x4d, 0x61, 0x74, 0x4d, 0x75, 0x6c, 0x00, 0x00, 0x00,
  0xec, 0xe1, 0xff, 0xff, 0xe2, 0xe2, 0xff, 0xff, 0x04, 0x00, 0x00, 0x00,
  0x00, 0x1c, 0x00, 0x00, 0xa9, 0xa9, 0x7d, 0x3d, 0x41, 0xe8, 0xfa, 0xbc,
  0x9d, 0xd0, 0x86, 0x3e, 0x0e, 0x8e, 0x83, 0x3d, 0xb2, 0xca, 0xaa, 0x3d,
  0x0d, 0x86, 0x45, 0x3e, 0xdd, 0x54, 0xbe, 0x3c, 0x64, 0xe4, 0xec, 0xbc,
  0xde, 0x73, 0x90, 0xbd, 0x16, 0x86, 0xa6, 0xbe, 0x46, 0x49, 0x90, 0x3e,
  0x8b, 0x24, 0x92, 0xbe, 0x96, 0x06, 0xbb, 0x3b, 0x6f, 0x34, 0x64, 0x3d,
  0xcc, 0x80, 0x83, 0xbe, 0xbb, 0xc7, 0x1e, 0x3e, 0x5b, 0xbd, 0x39, 0x3e,
  0x2f, 0x83, 0x2b, 0xbe, 0x11, 0x2f, 0x82, 0xbd, 0x32, 0xe1, 0x7d, 0xbd,
  0x32, 0xd9, 0x0e, 0x3e, 0x5d, 0xd7, 0xaa, 0xbd, 0x68, 0x97, 0x6f, 0xbe,
  0x9c, 0x08, 0x6d, 0x3e, 0x98, 0x7e, 0x26, 0x3d, 0x03, 0xc8, 0x5c, 0xbe,
  0xa8, 0x8d, 0x98, 0x3d, 0x90, 0xd9, 0x58, 0xbe, 0xf8, 0x47, 0x19, 0x3d,
  0x2b, 0xfa, 0xb7, 0x3d, 0xdf, 0x1f, 0x8f, 0xbe, 0x4e, 0x0b, 0xc4, 0x3d,
  0xff, 0x3a, 0x17, 0x3e, 0xd8, 0x61, 0x40, 0xbe, 0x15, 0xc0, 0x31, 0x3e,
  0xbc, 0xef, 0x2e, 0xbe, 0xbb, 0x25, 0x7d, 0x3e, 0xf3, 0xe2, 0xc5, 0xbd,
  0xc4, 0x79, 0x18, 0x3d, 0x06, 0x2b, 0xdd, 0xbd, 0x60, 0x2a, 0x78, 0xbe,
  0x41, 0x3d, 0xe8, 0xbe, 0xa7, 0x96, 0x93, 0x3c, 0x07, 0x22, 0xf1, 0xbb,
  0xe3, 0xef, 0x76, 0xbd, 0xfd, 0x40, 0xb0, 0xbb, 0x54, 0xb4, 0x24, 0xbe,
  0x45, 0x59, 0x6a, 0xbd, 0x0a, 0x9b, 0xd3, 0xbc, 0x29, 0x97, 0x85, 0xbe,
  0x45, 0x8c, 0xa7, 0xbd, 0xb4, 0x58, 0x92, 0xbe, 0xbb, 0x97, 0x53, 0xbe,
  0x43, 0xde, 0x8d, 0xbe, 0x38, 0x7f, 0x88, 0x3d, 0x08, 0x8e, 0xa5, 0xbe,
  0xe1, 0x5f, 0x95, 0xbe, 0xc6, 0x9e, 0xe3, 0xbe, 0xb1, 0x45, 0x87, 0xbe,
  0x62, 0xa1, 0x1d, 0x3c, 0x5c, 0x6a, 0x2d, 0x3d, 0x37, 0x60, 0x8e, 0xbc,
  0xc7, 0xe4, 0xab, 0xbe, 0x02, 0xd3, 0x84, 0xbc, 0xf8, 0x97, 0x68, 0xbe,
  0x56, 0x0e, 0xa4, 0xbe, 0x5a, 0xdc, 0x03, 0x3e, 0xa0, 0xae, 0x0b, 0xbd,
  0xed, 0x23, 0x67, 0x3d, 0x5a, 0xa3, 0x63, 0xbe, 0xca, 0x86, 0x1a, 0xbe,
  0x23, 0xed, 0x58, 0x3c, 0x18, 0x05, 0x16, 0xbe, 0x55, 0x63, 0x53, 0xbe,
  0x0a, 0xcb, 0xd3, 0x3d, 0x2e, 0xac, 0x0e, 0x3e, 0x06, 0x99, 0x36, 0xbe,
  0x9e, 0x1d, 0xfc, 0xbd, 0xf2, 0xaf, 0x3d, 0xbe, 0x52, 0xba, 0x89, 0xbd,
  0xc8, 0xe7, 0x79, 0x3e, 0xea, 0xbe, 0xa8, 0x3d, 0x2c, 0x99, 0x96, 0x3e,
  0xea, 0xf8, 0x84, 0xbe, 0x94, 0xcb, 0x90, 0x3d, 0xee, 0x6a, 0x1b, 0x3e,
  0x99, 0xf2, 0xbc, 0xbc, 0x34, 0x54, 0x2d, 0xbe, 0xdb, 0x8f, 0x3c, 0x3e,
  0x93, 0x88, 0xfa, 0xbc, 0x85, 0x9b, 0x3e, 0x3e, 0xc7, 0x4f, 0x22, 0x3d,
  0x33, 0x32, 0x84, 0xbd, 0xa5, 0x62, 0xd8, 0xbd, 0x7a, 0x48, 0x9d, 0xbd,
  0x28, 0x91, 0xf7, 0x3d, 0x27, 0x21, 0x46, 0x3d, 0xf5, 0x82, 0x51, 0x3d,
  0x63, 0x3c, 0x37, 0x3e, 0xf3, 0xb8, 0xe3, 0xbb, 0x27, 0x55, 0x35, 0x3d,
  0xed, 0xaf, 0x3f, 0xbd, 0x6e, 0x87, 0x80, 0x3e, 0x54, 0x7a, 0xd2, 0x3c,
  0xb4, 0x53, 0x8e, 0x3e, 0xdd, 0x06, 0x6d, 0x3e, 0xcd, 0x23, 0xce, 0x3e,
  0xa5, 0xd8, 0xaa, 0x3d, 0xdc, 0xc0, 0x94, 0x3c, 0xed, 0x73, 0xfa, 0x3c,
  0x66, 0x35, 0x61, 0xbb, 0xde, 0x1b, 0xa8, 0x3d, 0xef, 0x66, 0x67, 0xbe,
  0xd2, 0x05, 0x91, 0xbe, 0x30, 0xbd, 0x1e, 0xbe, 0x5a, 0x72, 0x0c, 0x3e,
  0x54, 0x76, 0x43, 0x3e, 0x53, 0xf0, 0x4f, 0xbc, 0x98, 0x88, 0x1b, 0xbe,
  0x5d, 0x62, 0x45, 0x3e, 0x04, 0x5a, 0x1a, 0xbe, 0xed, 0xdb, 0x99, 0xbd,
  0x4c, 0x47, 0xce, 0xbd, 0xce, 0x8d, 0x0f, 0xbe, 0x15, 0xfa, 0x3e, 0x3d,
  0xf2, 0x4c, 0x96, 0x3d, 0xa8, 0x1e, 0xa9, 0xbd, 0x50, 0x49, 0x90, 0xbe,
  0x76, 0xd3, 0x25, 0xbd, 0x5f, 0xa4, 0x54, 0x3d, 0x8e, 0xf8, 0x41, 0x3e,
  0x0f, 0xeb, 0x94, 0x3d, 0x27, 0xa0, 0xa6, 0xbd, 0x8d, 0x1b, 0xb4, 0xbd,
  0x58, 0x05, 0x16, 0xbc, 0x50, 0x7e, 0x23, 0x3e, 0x9f, 0x6f, 0xd5, 0xbd,
  0xf3, 0x0f, 0x09, 0xbd, 0x0c, 0xf6, 0x92, 0xbc, 0xb2, 0x24, 0x44, 0x3e,
  0x72, 0xcb, 0x14, 0x3e, 0x79, 0x88, 0xfe, 0xbd, 0x55, 0x23, 0x14, 0xbe,
  0x8f, 0x29, 0x01, 0x3d, 0x29, 0xae, 0x65, 0xbe, 0xb3, 0x62, 0xe7, 0x3d,
  0x76, 0x88, 0x45, 0xbe, 0x8a, 0x44, 0xd6, 0xbd, 0x6a, 0xf7, 0x33, 0xbe,
  0x67, 0x74, 0x94, 0xbc, 0xbd, 0x63, 0x3b, 0xbe, 0xd6, 0xa1, 0xa1, 0xbd,
  0x1b, 0x62, 0x96, 0xbd, 0x1c, 0x62, 0x46, 0xbe, 0x9c, 0xf7, 0x3c, 0xbe,
  0x1c, 0xd9, 0x6f, 0xbc, 0x97, 0xa8, 0x64, 0xbd, 0xcc, 0x07, 0xa3, 0xbd,
  0xea, 0xf0, 0x32, 0xbe, 0x71, 0x53, 0x40, 0xbe, 0x2d, 0x5f, 0x68, 0xbe,
  0xce, 0x43, 0x7f, 0xbe, 0x3d, 0xa4, 0x1b, 0x3e, 0xb2, 0x61, 0xe0, 0xbd,
  0x96, 0x80, 0x72, 0xbe, 0x10, 0xe3, 0x14, 0xbd, 0xba, 0xd0, 0x0c, 0x3e,
  0xbd, 0x67, 0xfc, 0xbd, 0x6a, 0xba, 0x8a, 0xbc, 0x7f, 0x5c, 0x99, 0x3d,
  0xbf, 0x82, 0xf6, 0xbd, 0xb9, 0x0e, 0x46, 0xbe, 0x70, 0xd0, 0x26, 0xbe,
  0x56, 0x6e, 0x71, 0xbd, 0xfd, 0xd7, 0x35, 0xbe, 0xf8, 0x76, 0x84, 0x3d,
  0x91, 0xac, 0x0b, 0x3e, 0x16, 0xc3, 0x6e, 0x3d, 0x26, 0x8c, 0x61, 0xbe,
  0x29, 0x15, 0xb4, 0xbc, 0x29, 0x11, 0x20, 0xbe, 0xe8, 0x2d, 0xd6, 0x3d,
  0xef, 0x08, 0xa9, 0xbd, 0x2f, 0x11, 0x28, 0x3e, 0x7e, 0xe1, 0x2c, 0x3e,
  0x81, 0x8b, 0xeb, 0xb9, 0x36, 0x2e, 0x89, 0xbd, 0x93, 0xba, 0x29, 0xbe,
  0x2d, 0xda, 0x62, 0xbd, 0x49, 0x4d, 0x7d, 0xbd, 0x28, 0x43, 0xb0, 0xbd,
  0x27, 0x4d, 0x46, 0x3d, 0x3f, 0x09, 0x82, 0xbe, 0x6f, 0xf1, 0x98, 0xbe,
  0x8e, 0xea, 0x91, 0x3d, 0x80, 0xb4, 0x95, 0xbd, 0x68, 0xd5, 0x0e, 0x3e,
  0xdd, 0xbb, 0x49, 0xbe, 0x61, 0x08, 0x1e, 0x3e, 0x5a, 0xbc, 0xde, 0xbd,
  0x0c, 0x23, 0xaa, 0x3d, 0x5e, 0xa6, 0xe1, 0xbc, 0xcf, 0x30, 0x1f, 0xbd,
  0x07, 0xcc, 0x26, 0xbe, 0xd8, 0x47, 0x19, 0xbb, 0xbe, 0x94, 0x56, 0xbe,
  0x1c, 0x04, 0x22, 0xbe, 0xb6, 0x16, 0x87, 0xbd, 0x16, 0x3b, 0x13, 0x3d,
  0xf5, 0x4a, 0x7c, 0xbd, 0xaf, 0x5c, 0x67, 0xbe, 0x9e, 0xe2, 0x4e, 0x3d,
  0xc3, 0x0e, 0x8c, 0xbe, 0xe3, 0x40, 0xc5, 0x3c, 0x4b, 0x8a, 0xf6, 0x3c,
  0x38, 0x87, 0x6b, 0xbe, 0x25, 0x60, 0x85, 0x3d, 0x5e, 0x3b, 0xc5, 0xbd,
  0xfe, 0xa0, 0x52, 0xbe, 0xe4, 0xf1, 0x2e, 0xbe, 0x49, 0x23, 0x86, 0xbe,
  0x35, 0x19, 0x82, 0x3e, 0x86, 0x43, 0x40, 0xbd, 0x28, 0x52, 0xb5, 0x3d,
  0xdc, 0xf5, 0x41, 0x3d, 0x4a, 0x99, 0xb6, 0xbd, 0x9d, 0xe2, 0x2e, 0xbe,
  0x8e, 0x97, 0x1a, 0xbe, 0xdd, 0xf3, 0x75, 0xbe, 0x82, 0x10, 0xc2, 0x3d,
  0x0c, 0xac, 0x9c, 0x3b, 0xef, 0xaa, 0x0b, 0xbe, 0x42, 0x19, 0x08, 0xbe,
  0x25, 0xb7, 0x0a, 0x3d, 0x04, 0xd2, 0x97, 0x3d, 0x0e, 0x83, 0xfa, 0x3d,
  0xd2, 0x74, 0x6d, 0x3d, 0xe5, 0x6d, 0x7b, 0xbe, 0xd6, 0xd9, 0xdb, 0xbd,
  0xa0, 0xb7, 0xe6, 0xbd, 0xf7, 0x56, 0x10, 0xbe, 0x87, 0x5d, 0x02, 0xbe,
  0xc0, 0x24, 0x42, 0xbe, 0xe7, 0xd7, 0x60, 0xbe, 0x41, 0x5d, 0x9f, 0x3d,
  0x07, 0x4b, 0x50, 0xbe, 0x3c, 0xff, 0xbe, 0xbd, 0x8d, 0xca, 0xce, 0x3b,
  0x15, 0xf5, 0x90, 0x3d, 0xed, 0x92, 0x5e, 0x3d, 0xda, 0xd7, 0x96, 0x3d,
  0x39, 0x78, 0xb8, 0x3b, 0x1a, 0x1d, 0xb5, 0x3c, 0xab, 0xb1, 0x35, 0x3e,
  0x5d, 0xe5, 0x7a, 0xbe, 0x32, 0x8f, 0x00, 0x3d, 0x3b, 0x29, 0x02, 0xbd,
  0x36, 0xd0, 0x26, 0xbc, 0x34, 0x99, 0x6f, 0xbe, 0x4e, 0xb6, 0xbf, 0xbd,
  0x9f, 0x79, 0xbd, 0x3d, 0x84, 0xfd, 0x73, 0xbe, 0xed, 0x75, 0xa1, 0x3d,
  0xd4, 0x8b, 0xc3, 0x3d, 0x53, 0x57, 0xfa, 0xbd, 0xab, 0xa8, 0xdc, 0xbc,
  0xe5, 0x37, 0x23, 0xbe, 0x5b, 0x7f, 0x9e, 0x3d, 0xdc, 0x20, 0x26, 0xbe,
  0x57, 0xcc, 0x1c, 0xbe, 0xaa, 0x6a, 0x73, 0xbe, 0x6b, 0x7e, 0xa2, 0xbd,
  0xb8, 0x20, 0x31, 0x3d, 0x22, 0xcf, 0x8e, 0xbd, 0x47, 0x63, 0x5e, 0xbe,
  0x77, 0xc8, 0xe2, 0x3b, 0x5f, 0xd9, 0x68, 0xbe, 0x8e, 0x44, 0xe6, 0x3c,
  0x3a, 0x57, 0x4a, 0xbb, 0x7d, 0x47, 0xc4, 0x3d, 0x2a, 0x1c, 0x06, 0xbe,
  0x8a, 0x23, 0x59, 0xbe, 0x98, 0x92, 0xe8, 0xbc, 0xd1, 0xdd, 0x98, 0x3d,
  0x6d, 0x77, 0x75, 0xbe, 0x27, 0x26, 0xd2, 0x3c, 0xa3, 0x75, 0x64, 0xbe,
  0xa7, 0xe2, 0x2c, 0xbe, 0xb4, 0x98, 0xd2, 0x3c, 0x82, 0xfb, 0xed, 0xbc,
  0xd2, 0x13, 0x59, 0xbc, 0x5c, 0x94, 0x8f, 0xbd, 0x5a, 0xc3, 0xd9, 0xbd,
  0x4e, 0x77, 0x4e, 0xbe, 0x2a, 0xb8, 0x18, 0x3e, 0x3b, 0xe3, 0x4b, 0xbe,
  0x5c, 0x44, 0x24, 0x3e, 0xd0, 0x66, 0x3b, 0xbe, 0x33, 0xcf, 0x90, 0xbd,
  0x8c, 0x71, 0x1a, 0xbe, 0xf1, 0x2e, 0xf4, 0xbc, 0x6d, 0x66, 0x23, 0x3e,
  0x27, 0x5f, 0xe6, 0xbd, 0x10, 0x46, 0x54, 0x3d, 0x54, 0xfd, 0xea, 0xbd,
  0x01, 0xda, 0x59, 0xbd, 0x5d, 0x94, 0xf5, 0x3d, 0xed, 0x9f, 0x8d, 0xbd,
  0x3a, 0x4f, 0x78, 0xbb, 0xb7, 0x18, 0x67, 0xbd, 0x3e, 0x29, 0xa8, 0x3c,
  0xb6, 0x93, 0x66, 0xbe, 0xe5, 0x15, 0x1d, 0xbe, 0xfa, 0xf7, 0x4f, 0xbd,
  0xb2, 0xc5, 0x29, 0xbe, 0x45, 0xb3, 0x9a, 0xbd, 0x24, 0xfb, 0xe6, 0x3d,
  0x33, 0x6e, 0xf9, 0xbd, 0x18, 0x9a, 0xe5, 0xbd, 0x70, 0xd8, 0xf1, 0xbd,
  0xbb, 0x85, 0x0d, 0xbe, 0x8a, 0x50, 0x78, 0xbe, 0x15, 0xf3, 0x55, 0xbe,
  0xb8, 0x54, 0x38, 0x3d, 0xa7, 0x79, 0xc7, 0x3c, 0x27, 0x9c, 0x93, 0xbd,
  0x00, 0xf2, 0xbe, 0x3d, 0x82, 0xcc, 0x3c, 0x3d, 0x84, 0x12, 0x48, 0xbe,
  0x3e, 0xf2, 0x1c, 0xbe, 0xa5, 0xfa, 0xa9, 0xba, 0xe9, 0x33, 0x18, 0x3e,
  0x9f, 0x85, 0x5c, 0xbd, 0xc7, 0x4e, 0x05, 0xbe, 0x53, 0x9c, 0x3f, 0x3c,
  0x8f, 0xad, 0x5c, 0x3d, 0x2a, 0x9e, 0x81, 0x3e, 0xe5, 0x46, 0xc6, 0x3d,
  0x12, 0x2c, 0x65, 0x3e, 0x88, 0x47, 0x8a, 0xbe, 0xcb, 0x05, 0xed, 0x3a,
  0x8e, 0x5c, 0x0f, 0x3e, 0x60, 0xa0, 0x2a, 0xbe, 0x35, 0x48, 0xba, 0xbd,
  0xa5, 0xcd, 0x56, 0x3d, 0x75, 0x74, 0x46, 0x3e, 0x7b, 0xdb, 0x12, 0x3e,
  0xd9, 0x3f, 0x03, 0xbf, 0x48, 0x67, 0xb7, 0xbe, 0xcf, 0x51, 0x99, 0xbe,
  0x17, 0xa1, 0x8a, 0xbd, 0x11, 0xc7, 0xab, 0x3e, 0x9c, 0x71, 0x98, 0x3e,
  0x80, 0x92, 0xcf, 0x3d, 0x56, 0xe2, 0xa8, 0xbc, 0x88, 0x0c, 0x32, 0x3e,
  0xce, 0x7e, 0x2a, 0x3c, 0x1d, 0x34, 0xdf, 0xbd, 0x65, 0x84, 0x81, 0x3d,
  0x50, 0xc7, 0x84, 0x3c, 0xbe, 0x35, 0x35, 0x3d, 0x54, 0x97, 0x18, 0x3e,
  0x7f, 0x57, 0x34, 0xbd, 0x80, 0x84, 0x11, 0x3e, 0x1e, 0x1e, 0x62, 0xbe,
  0xa0, 0x02, 0x2e, 0xbe, 0x70, 0x90, 0x23, 0xbd, 0x82, 0x68, 0x9c, 0x3d,
  0xd9, 0x96, 0x08, 0xbe, 0x45, 0x6b, 0x94, 0x3b, 0xb8, 0xbc, 0x02, 0x3d,
  0x68, 0xf8, 0xaa, 0x3e, 0xa2, 0x91, 0x32, 0x3e, 0xec, 0x84, 0xf0, 0xbe,
  0x24, 0x31, 0x6b, 0x3e, 0xc9, 0xf2, 0x81, 0x3e, 0x36, 0xfe, 0xf5, 0xbe,
  0x4d, 0xe8, 0x92, 0xbd, 0x41, 0xd2, 0x17, 0xbe, 0xca, 0xfa, 0xd9, 0x3d,
  0x6e, 0x20, 0x37, 0x3c, 0xde, 0xda, 0x4e, 0xbc, 0x12, 0x3c, 0x25, 0xbd,
  0xcd, 0xb6, 0x8d, 0xbd, 0xfc, 0x88, 0x25, 0xbf, 0xaf, 0xc7, 0x95, 0xbd,
  0xa1, 0x24, 0xa6, 0xbe, 0x58, 0x13, 0x31, 0x3e, 0x91, 0xd7, 0x5f, 0xbe,
  0x7f, 0xd2, 0x95, 0xbe, 0xe0, 0x87, 0x16, 0x3d, 0x6a, 0xd6, 0x94, 0xbe,
  0xaf, 0xd8, 0x33, 0xbf, 0x37, 0xe4, 0x40, 0xbe, 0xdb, 0xb5, 0xa8, 0xbd,
  0x7d, 0xea, 0xde, 0xbc, 0x78, 0x2e, 0x50, 0xbf, 0x6a, 0x68, 0xa2, 0x3d,
  0x06, 0x0b, 0x30, 0xbd, 0x5e, 0x50, 0xf0, 0xbe, 0x8a, 0x6f, 0xef, 0xbe,
  0x5c, 0xe5, 0x92, 0xbd, 0x0c, 0xe3, 0x95, 0xbe, 0x19, 0xea, 0xde, 0x3d,
  0x8e, 0xdd, 0x56, 0x3c, 0x5e, 0xa1, 0x8c, 0xbe, 0x8e, 0xb5, 0xa9, 0x3d,
  0xd0, 0xb3, 0x2f, 0x3d, 0x1e, 0xea, 0xb0, 0xbe, 0x11, 0x89, 0x41, 0xbe,
  0xa8, 0xba, 0xc7, 0x3c, 0x69, 0xf8, 0x87, 0x3e, 0xd4, 0x5b, 0x76, 0xbe,
  0x01, 0x0c, 0xd4, 0x3d, 0x57, 0x50, 0x60, 0xbd, 0xfc, 0x02, 0xe7, 0xbe,
  0x56, 0x7d, 0x24, 0xbf, 0x55, 0x8d, 0xf4, 0xbd, 0x10, 0x46, 0x64, 0xbe,
  0x30, 0x5b, 0x44, 0x3c, 0x00, 0xe8, 0x96, 0xbc, 0xc9, 0x74, 0x95, 0xbe,
  0x63, 0x7d, 0x8d, 0xbd, 0x71, 0x27, 0x22, 0xbd, 0x82, 0xba, 0xaf, 0xbe,
  0x64, 0xc7, 0x35, 0xbe, 0x96, 0xf1, 0xe6, 0xbd, 0x1c, 0x19, 0x89, 0xbd,
  0x33, 0x1c, 0xa6, 0xbe, 0x95, 0x47, 0x94, 0x3d, 0x2f, 0x7c, 0x59, 0xbd,
  0x9a, 0x45, 0xbe, 0xbe, 0x5d, 0x51, 0x89, 0xbe, 0xb5, 0x8d, 0xf4, 0xbd,
  0x3c, 0x1e, 0xdb, 0xbd, 0xca, 0x1e, 0x27, 0xbd, 0x2b, 0x40, 0x0b, 0xbd,
  0x42, 0xdc, 0x1f, 0xbe, 0xf4, 0x29, 0x05, 0xbe, 0xbc, 0x37, 0x91, 0x3b,
  0x7e, 0x72, 0x82, 0xbe, 0xfb, 0x98, 0x5a, 0xbd, 0xc1, 0xd8, 0x27, 0xbe,
  0x0d, 0xc1, 0x01, 0xbe, 0xb8, 0x39, 0x16, 0xbb, 0x43, 0xd1, 0x80, 0x3d,
  0x03, 0x17, 0x0e, 0xbd, 0x9a, 0x37, 0x85, 0x3d, 0x49, 0x74, 0x35, 0x3e,
  0xb6, 0xe5, 0x28, 0x3d, 0x62, 0x34, 0x7d, 0x3e, 0x9f, 0x8c, 0x03, 0xbf,
  0x38, 0xdb, 0x4f, 0xbc, 0x59, 0xc5, 0x2c, 0x3e, 0x56, 0x62, 0x6d, 0xbe,
  0x76, 0xe5, 0xb8, 0x3c, 0x82, 0xc2, 0x8b, 0x3d, 0x2a, 0x7d, 0x4e, 0x3d,
  0x1f, 0x29, 0xfb, 0x3d, 0x0e, 0xcf, 0xdf, 0xbe, 0xc7, 0x2e, 0x59, 0xbe,
  0xb5, 0x0d, 0x87, 0x3d, 0x16, 0x55, 0x9e, 0xbd, 0x0f, 0xd5, 0x39, 0x3e,
  0x66, 0x9f, 0x2e, 0x3e, 0x56, 0xfb, 0xd5, 0xb7, 0x08, 0x7e, 0x24, 0x3d,
  0x69, 0xa6, 0x26, 0xbe, 0xda, 0xe6, 0x3e, 0x3e, 0xc0, 0x7f, 0x5f, 0xbe,
  0x27, 0x95, 0x86, 0xbd, 0x80, 0xcb, 0x3c, 0x3d, 0x23, 0xe4, 0xc1, 0x3c,
  0x0f, 0x76, 0xe7, 0x3a, 0xc8, 0x7d, 0xc3, 0x3d, 0x3f, 0xf9, 0x42, 0xbc,
  0xb3, 0xac, 0x8f, 0xbd, 0xee, 0x4c, 0x9c, 0x3c, 0x53, 0x6b, 0x12, 0xbe,
  0xad, 0x9c, 0x11, 0xbd, 0x13, 0x0b, 0xc0, 0xbe, 0x51, 0x80, 0xcc, 0xbc,
  0x1d, 0x59, 0x36, 0xbd, 0xe7, 0xfb, 0x9e, 0x3c, 0x4e, 0x55, 0x30, 0xbe,
  0x8f, 0xd8, 0xdb, 0xbe, 0x16, 0x71, 0x2e, 0x3e, 0x93, 0x13, 0x56, 0xbe,
  0xfb, 0xee, 0xbf, 0xbe, 0x02, 0x3a, 0x90, 0xbe, 0x2e, 0x40, 0x7b, 0xbe,
  0x87, 0xe8, 0x6a, 0x3e, 0xd6, 0x52, 0xa3, 0xbe, 0xc1, 0x7d, 0x5c, 0x3d,
  0xe6, 0xd2, 0x1e, 0xbd, 0xd3, 0x32, 0x39, 0xbe, 0x0e, 0x2a, 0x13, 0xbf,
  0xae, 0xe6, 0x6f, 0xbe, 0x2e, 0xda, 0xcb, 0xbe, 0x6c, 0x4e, 0xd3, 0xbd,
  0xd7, 0x7b, 0x18, 0xbe, 0xcd, 0x8b, 0x0b, 0xbf, 0x6a, 0xd1, 0xad, 0x3e,
  0x4e, 0x96, 0xc2, 0xbe, 0x6b, 0xd1, 0x09, 0xbf, 0x32, 0x36, 0xdb, 0xbe,
  0x0a, 0xbf, 0x27, 0x3e, 0xda, 0x58, 0xb3, 0x3e, 0x13, 0x63, 0xbe, 0xbe,
  0xc3, 0x65, 0xab, 0x3c, 0x89, 0xf1, 0x27, 0xbd, 0x9b, 0xc0, 0xcd, 0xbe,
  0x4a, 0x8f, 0x98, 0xbe, 0x38, 0x70, 0xa2, 0xbc, 0xbd, 0x48, 0xd6, 0x3e,
  0xf4, 0x08, 0x30, 0x3c, 0x89, 0x2b, 0xc1, 0x3d, 0x13, 0x89, 0x9a, 0x3d,
  0x9d, 0xda, 0xb7, 0xbc, 0xce, 0x3b, 0x12, 0xbd, 0x23, 0xb4, 0x43, 0x3e,
  0xc0, 0xe6, 0x5c, 0xbe, 0x60, 0x38, 0x5a, 0x3e, 0xc2, 0x73, 0x95, 0x3e,
  0x07, 0x11, 0x55, 0xbe, 0x55, 0x8d, 0x85, 0x3e, 0xbc, 0xb1, 0xfb, 0xbb,
  0x80, 0x4a, 0x91, 0xbd, 0xd1, 0xc0, 0x0c, 0x3e, 0x12, 0x2f, 0xae, 0x3d,
  0xb2, 0xed, 0x5c, 0x3d, 0x4d, 0xa0, 0xac, 0xbe, 0x62, 0x48, 0x2f, 0x3d,
  0xa8, 0x03, 0x02, 0x3d, 0x59, 0x88, 0xde, 0xbc, 0x44, 0x58, 0x38, 0x3d,
  0xe5, 0xd9, 0x2d, 0x3d, 0x9a, 0x6c, 0xcf, 0x3b, 0x89, 0x8b, 0x8e, 0x3e,
  0xdb, 0x87, 0xb3, 0xbc, 0xfa, 0x59, 0x5a, 0xbe, 0x59, 0x88, 0x2c, 0x3e,
  0x0e, 0xaf, 0x5f, 0x3d, 0xac, 0x63, 0x84, 0x3d, 0xe4, 0x60, 0x4e, 0x3e,
  0x74, 0x19, 0xb2, 0xbd, 0xe1, 0x49, 0xb7, 0xbd, 0x4d, 0xf8, 0x6b, 0xbe,
  0xaa, 0x4f, 0x0d, 0x3e, 0x45, 0x34, 0x95, 0xbd, 0x91, 0xae, 0xbb, 0xbd,
  0x9a, 0x1b, 0xb7, 0x3c, 0x74, 0x32, 0x4f, 0xbe, 0xf7, 0xfa, 0xd6, 0x3d,
  0x8f, 0x69, 0x84, 0x3d, 0x0d, 0x2b, 0xbd, 0x3d, 0xaa, 0xe9, 0xc7, 0xbd,
  0xe9, 0x4d, 0x54, 0xbc, 0x22, 0xc2, 0x19, 0xbc, 0xb2, 0x07, 0xde, 0xbd,
  0xe4, 0x2f, 0x03, 0xbe, 0xe2, 0xdd, 0xed, 0xbc, 0x4a, 0x1b, 0x8b, 0xbd,
  0x16, 0x37, 0xa3, 0x3e, 0x75, 0x58, 0x36, 0x3e, 0x40, 0x70, 0xf1, 0xbe,
  0xce, 0xd1, 0x14, 0xbf, 0xa3, 0xa8, 0x19, 0x3e, 0xa0, 0xbc, 0xac, 0xbc,
  0x6f, 0x51, 0x2f, 0xbe, 0x45, 0x20, 0x03, 0x3e, 0x84, 0xdf, 0x07, 0xbe,
  0x90, 0x4e, 0xeb, 0x3e, 0x1b, 0xd7, 0x8a, 0xbe, 0xd8, 0xb9, 0x93, 0x3c,
  0xf8, 0x02, 0x63, 0xbe, 0x0c, 0x50, 0x00, 0xbe, 0x8a, 0x86, 0xc6, 0xbd,
  0x90, 0xd4, 0x56, 0x3e, 0xc3, 0x3e, 0x1d, 0xbe, 0xf1, 0xb4, 0xa9, 0xbd,
  0x85, 0x0e, 0x5c, 0xbe, 0x62, 0x59, 0xf6, 0xbc, 0x67, 0xf9, 0x0a, 0x3e,
  0xcf, 0x81, 0xda, 0xb9, 0xd1, 0x2a, 0x8c, 0xbe, 0x97, 0xaf, 0x2b, 0x3e,
  0x63, 0xb7, 0x51, 0xbe, 0x3d, 0x98, 0xbf, 0x3e, 0x1d, 0xed, 0xc4, 0xbc,
  0xf5, 0xb4, 0x22, 0xbd, 0xc9, 0xe9, 0xbb, 0xbe, 0xcb, 0xea, 0x6a, 0x3e,
  0x4c, 0xf5, 0x22, 0xbd, 0xc1, 0x7f, 0x1b, 0xbe, 0xce, 0x78, 0xbd, 0xbe,
  0xcf, 0xec, 0x3a, 0x3e, 0x01, 0x76, 0x03, 0x3d, 0x35, 0x33, 0xa0, 0x3d,
  0x5c, 0xbc, 0xb4, 0x3c, 0x88, 0xdc, 0x24, 0x3f, 0x3e, 0x4f, 0x8a, 0xbe,
  0xdc, 0x82, 0x77, 0xbe, 0xf1, 0x62, 0x3f, 0xbe, 0x99, 0x48, 0x91, 0x3e,
  0xfd, 0xa4, 0x13, 0x3d, 0xb6, 0x0a, 0x3c, 0xbc, 0xb0, 0xc3, 0x14, 0xbd,
  0x0a, 0x09, 0xac, 0x3e, 0xb9, 0x8d, 0x69, 0xbc, 0x3d, 0xab, 0x0d, 0x3e,
  0x0a, 0xd0, 0xfb, 0x3c, 0x8f, 0x31, 0xaf, 0x3e, 0x81, 0xb9, 0xbb, 0xbb,
  0x00, 0x0a, 0x16, 0x3e, 0xae, 0x6e, 0x41, 0x3e, 0x7e, 0xe7, 0x0f, 0x3f,
  0x36, 0xb4, 0x03, 0x3d, 0x05, 0x68, 0xa4, 0xbd, 0x58, 0x02, 0x17, 0xbe,
  0xd5, 0xc0, 0x53, 0x3e, 0xd2, 0x77, 0x9e, 0xbd, 0xa4, 0x22, 0x1c, 0xb9,
  0xab, 0xf4, 0x96, 0x3d, 0xf3, 0x0e, 0x94, 0x3e, 0x04, 0x43, 0x96, 0xbc,
  0xd1, 0x29, 0xc0, 0xbe, 0x42, 0x39, 0x5f, 0x3e, 0x69, 0x7f, 0x9e, 0x3e,
  0x80, 0xcc, 0x8f, 0xbe, 0x08, 0x54, 0x87, 0x3d, 0x34, 0x97, 0x34, 0x3e,
  0x37, 0xf9, 0x4e, 0x3e, 0x5d, 0x7d, 0xed, 0x3c, 0x7f, 0x3f, 0x15, 0xbe,
  0xc5, 0x18, 0x52, 0x3c, 0x67, 0xfe, 0x68, 0x3e, 0x58, 0x68, 0x35, 0xbd,
  0x58, 0xcb, 0xe4, 0xbb, 0x4b, 0x2a, 0xa5, 0x3c, 0x28, 0x66, 0xb1, 0xbd,
  0x98, 0xc9, 0x45, 0xbd, 0x2c, 0xdf, 0xcc, 0xbd, 0x03, 0x91, 0xf7, 0x3e,
  0x8d, 0x5f, 0x1c, 0x3e, 0x9f, 0x77, 0xc1, 0xbe, 0xd6, 0xa0, 0x8b, 0x3d,
  0xef, 0xb1, 0xfe, 0x3c, 0x5e, 0x43, 0xcf, 0x3d, 0x28, 0x87, 0x84, 0x3d,
  0x5f, 0x03, 0x40, 0xbe, 0xa6, 0x73, 0x75, 0xbc, 0xe3, 0x3e, 0xc5, 0x3e,
  0xf2, 0x4f, 0xce, 0xbc, 0x71, 0x16, 0x11, 0x3c, 0xd2, 0xc5, 0x51, 0xbe,
  0x60, 0xa9, 0xe0, 0x3b, 0xd9, 0x60, 0x82, 0x3d, 0x6c, 0x7b, 0xc5, 0xbd,
  0x77, 0xd8, 0xb5, 0x3e, 0x0f, 0x7d, 0xbc, 0x3d, 0x12, 0x1a, 0xff, 0xbd,
  0x8f, 0xe7, 0x0a, 0x3c, 0x20, 0xfc, 0x8d, 0x3c, 0x82, 0xf8, 0x35, 0x3e,
  0x7e, 0xfe, 0xc2, 0xbd, 0x9a, 0x8c, 0xba, 0xbb, 0xeb, 0x9e, 0x04, 0xbd,
  0xc6, 0xba, 0x1d, 0x3e, 0x9b, 0x83, 0xd7, 0xbc, 0xa1, 0x8d, 0xbb, 0x3c,
  0x00, 0x46, 0x63, 0xbd, 0xb5, 0xd7, 0xaf, 0xbd, 0x49, 0x37, 0xb5, 0xbd,
  0x0b, 0x9c, 0x5b, 0x3d, 0xa0, 0xde, 0xee, 0x3d, 0x30, 0x59, 0x4a, 0xbd,
  0xe9, 0x44, 0x13, 0xbd, 0x63, 0x3b, 0x4a, 0xbd, 0x5b, 0x7e, 0x66, 0xbe,
  0x40, 0x60, 0x6d, 0xbe, 0xe4, 0xe5, 0xc8, 0xbd, 0xec, 0xb4, 0x86, 0x3d,
  0xa0, 0x0e, 0x29, 0x3d, 0xf4, 0x96, 0x7e, 0x3d, 0x6a, 0x48, 0xa3, 0x3d,
  0xed, 0xef, 0xbd, 0xbd, 0x44, 0x6b, 0x86, 0xbe, 0xf4, 0x7d, 0xd5, 0xbd,
  0xf6, 0x6a, 0xfa, 0xbc, 0x9a, 0xbe, 0xa7, 0x3d, 0x33, 0x15, 0x1e, 0x3e,
  0x05, 0xee, 0xf3, 0x3d, 0x90, 0x20, 0x69, 0xbe, 0x97, 0x38, 0xdd, 0x3d,
  0x15, 0x88, 0x1e, 0xbd, 0x45, 0x47, 0xdb, 0xbb, 0x3d, 0x8f, 0x65, 0x3c,
  0x51, 0x4d, 0x3f, 0x3e, 0x91, 0x32, 0xd8, 0x3d, 0x10, 0xac, 0x43, 0xbe,
  0x60, 0x0b, 0xf1, 0xbd, 0x64, 0x63, 0x8a, 0xbe, 0x77, 0x0b, 0x32, 0xbe,
  0xaa, 0xb3, 0x6a, 0xbe, 0xaf, 0x70, 0xa0, 0x37, 0xd6, 0x40, 0x89, 0xbd,
  0xd5, 0x31, 0xff, 0xbd, 0xa9, 0x5b, 0xbd, 0x3c, 0x5b, 0xda, 0x58, 0x3d,
  0xff, 0x66, 0xa9, 0x3d, 0xf7, 0x90, 0x9b, 0xba, 0x1f, 0x2d, 0x1d, 0xbe,
  0xe6, 0x0a, 0x9a, 0xbe, 0x74, 0x43, 0xf4, 0x3d, 0xd7, 0x81, 0x31, 0xbe,
  0x65, 0xcf, 0x76, 0x3d, 0xe1, 0x27, 0xe5, 0xbd, 0x3e, 0x80, 0x2b, 0xbe,
  0xc1, 0xeb, 0xcd, 0xbc, 0xbd, 0x79, 0x3d, 0xbe, 0xc1, 0xa3, 0x62, 0xbe,
  0x5a, 0x67, 0x9c, 0x3d, 0x1b, 0x65, 0xf0, 0xbc, 0x87, 0x0c, 0x4d, 0xbe,
  0xeb, 0xa3, 0x34, 0xbd, 0xba, 0x1b, 0x01, 0x3e, 0x6c, 0x6a, 0x24, 0xbd,
  0x73, 0x32, 0x83, 0x3d, 0x07, 0xe7, 0x2f, 0x3d, 0x34, 0x55, 0xf9, 0x3b,
  0x09, 0xfb, 0xcd, 0x3d, 0x95, 0xa7, 0xd3, 0x3c, 0x9a, 0x2b, 0x11, 0x3d,
  0xed, 0x5f, 0xb7, 0xbd, 0xe3, 0x87, 0x61, 0xbe, 0x29, 0x04, 0xac, 0xbc,
  0xaf, 0x32, 0x7f, 0xbe, 0xab, 0x10, 0x84, 0xbe, 0x88, 0x51, 0x06, 0xbe,
  0xc1, 0x22, 0x6a, 0xbe, 0x65, 0xa6, 0xf5, 0xbd, 0xc4, 0x49, 0x2b, 0xbe,
  0xab, 0xa4, 0x62, 0xbd, 0x09, 0xc4, 0x53, 0xbe, 0xab, 0x20, 0x9e, 0xbc,
  0x46, 0x9f, 0x02, 0x3e, 0xee, 0x1f, 0xc6, 0xbc, 0x55, 0xdc, 0x1f, 0x3e,
  0x52, 0x99, 0x7d, 0x3e, 0x0c, 0x76, 0x52, 0x3d, 0x16, 0xe8, 0x90, 0xbe,
  0x7e, 0x61, 0x2b, 0x3e, 0x88, 0x95, 0x52, 0xbe, 0xd0, 0xc7, 0xcf, 0x3d,
  0x68, 0x98, 0xcb, 0x3d, 0x84, 0x8e, 0x18, 0xbe, 0xd0, 0xc9, 0x87, 0xbd,
  0x85, 0x50, 0x1c, 0x3e, 0x14, 0x17, 0x71, 0xbe, 0x54, 0x3e, 0x80, 0x3c,
  0xd1, 0xe5, 0xc1, 0xbd, 0x85, 0x71, 0xda, 0xbb, 0xa8, 0xc4, 0x26, 0xbe,
  0x57, 0x56, 0xf5, 0xbd, 0x7c, 0x7d, 0x8b, 0x3e, 0x30, 0x52, 0xcb, 0x3d,
  0x17, 0x41, 0xf8, 0xbd, 0x9e, 0xb9, 0x1f, 0x3e, 0xef, 0x39, 0x77, 0xbe,
  0xfc, 0x16, 0xbf, 0xbd, 0xb1, 0x98, 0xec, 0xbc, 0x31, 0x1f, 0x85, 0xbd,
  0x82, 0x7f, 0x3e, 0xbe, 0xff, 0x44, 0x91, 0x3d, 0xc8, 0xe9, 0x3e, 0xbe,
  0x04, 0xdd, 0x34, 0x3e, 0x2d, 0x20, 0x9e, 0xbe, 0xe8, 0x26, 0xbc, 0xbd,
  0x7e, 0x29, 0xc9, 0x3c, 0xe2, 0xf5, 0xea, 0xbc, 0x84, 0xbf, 0x7b, 0x3e,
  0x4d, 0xac, 0x19, 0xbe, 0xa3, 0x62, 0xed, 0xbd, 0x01, 0x17, 0x22, 0x3e,
  0x6b, 0x5c, 0xae, 0xbe, 0x74, 0x94, 0x05, 0xbd, 0xa5, 0xf6, 0x57, 0xbb,
  0xad, 0x56, 0x88, 0x3d, 0x5a, 0x6b, 0xcb, 0xbd, 0xcd, 0x8e, 0x0b, 0xbe,
  0x3f, 0x6a, 0x22, 0xbe, 0x42, 0xaf, 0x81, 0x3d, 0x62, 0x5a, 0x97, 0xbe,
  0x88, 0xb8, 0x2b, 0xbe, 0xb0, 0x80, 0x5b, 0xbe, 0x15, 0xca, 0x11, 0x3d,
  0x71, 0x64, 0x4b, 0xbe, 0x78, 0x61, 0xaa, 0xbe, 0x35, 0xdd, 0xb4, 0xbd,
  0xd8, 0xcc, 0xbf, 0xbc, 0x4c, 0x18, 0x6f, 0xbe, 0x39, 0xc4, 0x4d, 0xbe,
  0x65, 0x6c, 0xd8, 0xbd, 0xbc, 0x3d, 0x09, 0xbe, 0xa2, 0x06, 0x01, 0xbe,
  0x6d, 0xef, 0x4b, 0xbe, 0x29, 0x30, 0x94, 0xbd, 0xb7, 0x25, 0x56, 0x3d,
  0x4e, 0x2f, 0x52, 0x3d, 0xd8, 0x14, 0x17, 0x3d, 0xf6, 0x60, 0xda, 0xbd,
  0x3e, 0xf2, 0x53, 0xbe, 0x52, 0x22, 0x0a, 0x3e, 0x17, 0x50, 0x6f, 0xbe,
  0x38, 0xa7, 0xd8, 0x3c, 0xc7, 0xbd, 0x45, 0xbe, 0xa3, 0x94, 0x46, 0xbd,
  0xaf, 0xe5, 0x41, 0x3e, 0xc4, 0xd6, 0xb8, 0x3d, 0xa9, 0xae, 0x88, 0x3c,
  0x57, 0x33, 0x65, 0xbb, 0xcd, 0xa9, 0x1a, 0x3d, 0xe5, 0x4a, 0x6f, 0xbe,
  0x3a, 0x5d, 0xb8, 0x3d, 0x91, 0xb5, 0xfb, 0xbd, 0x61, 0xa2, 0x1f, 0x3e,
  0xb0, 0x8b, 0x22, 0xbe, 0x05, 0xa1, 0xd2, 0x3d, 0x07, 0x54, 0xca, 0x3d,
  0x1b, 0x89, 0x74, 0xbe, 0xf1, 0x6f, 0x6a, 0xbe, 0x6f, 0x08, 0xf5, 0xbd,
  0xfb, 0x6e, 0x32, 0xbe, 0x86, 0xfd, 0xa5, 0x3c, 0x38, 0x46, 0x7e, 0x3c,
  0xba, 0x39, 0xc0, 0xbc, 0x3f, 0x8c, 0xb8, 0x3d, 0xa6, 0x7a, 0x51, 0xbe,
  0xc3, 0x19, 0x80, 0xbe, 0x74, 0x79, 0x7d, 0xbd, 0x46, 0x66, 0xbe, 0xbd,
  0x0c, 0x05, 0xea, 0x3c, 0xe4, 0xd1, 0x0b, 0xbe, 0xaa, 0x39, 0x29, 0x3e,
  0xe3, 0x8d, 0xf5, 0x3d, 0xa5, 0x3b, 0xa0, 0x3c, 0x5e, 0x5e, 0x8e, 0xbe,
  0x29, 0x52, 0x35, 0xbe, 0x61, 0xad, 0x48, 0xbe, 0x12, 0xa4, 0xbe, 0xbd,
  0xcc, 0xf3, 0x81, 0xbd, 0xe7, 0x33, 0x13, 0x3d, 0x81, 0x1f, 0x2b, 0x3d,
  0xef, 0x0a, 0x2f, 0xbd, 0x59, 0x68, 0x16, 0xbd, 0xa3, 0xe5, 0x0c, 0x3b,
  0x6e, 0xe1, 0x81, 0xbe, 0x8f, 0x1d, 0xe0, 0xbd, 0x8d, 0xb8, 0x38, 0x3e,
  0xe6, 0x6e, 0x28, 0x3d, 0x5f, 0x8a, 0xff, 0xbc, 0xc7, 0xc5, 0x7c, 0x3c,
  0x4d, 0x57, 0x52, 0x3d, 0x2c, 0x09, 0x0a, 0x3d, 0x49, 0x44, 0x99, 0xbe,
  0x54, 0xb4, 0x4f, 0x3d, 0xe6, 0x2d, 0x60, 0x3c, 0x76, 0xcc, 0x38, 0xbe,
  0x51, 0xeb, 0x63, 0xbd, 0x4c, 0xd5, 0x5a, 0xbe, 0xfd, 0xf9, 0xd8, 0xbd,
  0x9a, 0xbc, 0xd6, 0x3d, 0x3f, 0xed, 0xff, 0xbd, 0x78, 0x2d, 0x15, 0xbe,
  0x57, 0x3a, 0xe0, 0xbc, 0x67, 0x98, 0x96, 0x3c, 0xaa, 0xfa, 0x1c, 0xbd,
  0x73, 0x94, 0x09, 0xbd, 0x35, 0xca, 0x9a, 0xbd, 0x9d, 0x9e, 0x7e, 0xbd,
  0xb1, 0x6b, 0x8c, 0xbe, 0xfd, 0x60, 0x49, 0xbd, 0x55, 0x35, 0x80, 0xbd,
  0xfc, 0x15, 0x54, 0x3d, 0x3f, 0xe7, 0x01, 0x3d, 0xbf, 0x1d, 0x0b, 0x3d,
  0x4f, 0x65, 0x26, 0xbc, 0x90, 0xca, 0xe2, 0x3d, 0x7c, 0x99, 0xef, 0x3c,
  0x7f, 0x27, 0x24, 0xbe, 0x09, 0x9e, 0xc6, 0xbd, 0xf2, 0x74, 0xa6, 0x3c,
  0xd8, 0xba, 0xf2, 0x3d, 0xf6, 0x5f, 0x04, 0xbe, 0xf9, 0x3d, 0xb1, 0xbe,
  0x8b, 0xbf, 0xc6, 0xbe, 0x3b, 0x9c, 0x1d, 0xbe, 0xe7, 0x9b, 0x4b, 0xbe,
  0xc4, 0x76, 0x55, 0xbe, 0x0e, 0xf5, 0x8c, 0xbe, 0x79, 0xa7, 0xea, 0xbd,
  0x59, 0x62, 0xb2, 0xbe, 0xfa, 0x0f, 0xb9, 0xbd, 0xa7, 0x09, 0xac, 0xbe,
  0x81, 0x7f, 0x23, 0xbf, 0xdf, 0x85, 0xb8, 0xbe, 0xf2, 0xc9, 0xa3, 0xbe,
  0x81, 0x50, 0x9c, 0xbe, 0xc6, 0x67, 0xd1, 0x3d, 0x50, 0x51, 0x31, 0xbe,
  0xcd, 0x67, 0x0f, 0xbd, 0x9e, 0x87, 0x15, 0xbf, 0xc6, 0x57, 0xdd, 0xbd,
  0x7a, 0x3e, 0x01, 0xbe, 0x24, 0xb7, 0x8a, 0xbe, 0x3e, 0x2d, 0x6e, 0xbe,
  0x5c, 0xf5, 0x07, 0xbd, 0xa4, 0x68, 0x6d, 0xbe, 0x5c, 0x99, 0x7d, 0xbd,
  0x1b, 0x7a, 0x4e, 0xbe, 0x92, 0x1a, 0x0d, 0xbf, 0x6b, 0xe2, 0xe7, 0xbd,
  0x93, 0xf7, 0xd4, 0x3c, 0xa1, 0xd5, 0x91, 0xbd, 0x4c, 0xc9, 0xde, 0xbd,
  0x0e, 0x4a, 0xf5, 0xbd, 0xfc, 0xda, 0xb8, 0xbc, 0x6a, 0x9c, 0xe1, 0xbe,
  0x79, 0x0e, 0xec, 0xbd, 0x21, 0x24, 0xb7, 0x3c, 0xf3, 0xb5, 0x03, 0xbe,
  0x99, 0xbd, 0xe3, 0xbd, 0xab, 0xca, 0x82, 0xbd, 0x4e, 0xd0, 0x78, 0xbe,
  0xda, 0x39, 0xd2, 0xbe, 0xec, 0x8b, 0xb6, 0xbe, 0x92, 0xa1, 0x23, 0xbf,
  0xaa, 0x1c, 0x94, 0xbe, 0x2d, 0xd8, 0x02, 0xbd, 0xde, 0xc7, 0xad, 0xbe,
  0xc0, 0x67, 0xde, 0xbd, 0xb1, 0x02, 0x39, 0xbe, 0x3e, 0x9f, 0xda, 0x3d,
  0x0c, 0xfc, 0xf1, 0xbe, 0xd0, 0x0f, 0x0d, 0xbe, 0x45, 0x6f, 0x85, 0xbe,
  0xdd, 0x8e, 0xe2, 0xbd, 0xcb, 0x5c, 0x92, 0xbc, 0x3c, 0x29, 0xb9, 0xbe,
  0x10, 0x06, 0x03, 0x3e, 0xef, 0x2a, 0x45, 0xbe, 0x05, 0x13, 0x37, 0xbf,
  0xa8, 0x2f, 0x16, 0xbf, 0xff, 0x3b, 0xa3, 0xbe, 0x1e, 0x35, 0xfb, 0xbc,
  0x37, 0x9d, 0x4d, 0xbe, 0x31, 0x9c, 0xa5, 0xbc, 0x96, 0xd0, 0xec, 0xbd,
  0xd2, 0xe8, 0x18, 0x3d, 0x86, 0x28, 0xe5, 0xbe, 0xe0, 0xd1, 0xed, 0xbd,
  0x94, 0x1f, 0x68, 0x3e, 0x77, 0x59, 0x0f, 0xbd, 0x4f, 0x51, 0x72, 0x3d,
  0xa1, 0xc8, 0xff, 0xbd, 0x7d, 0x0f, 0x9a, 0x3d, 0xe8, 0x43, 0x8b, 0x3c,
  0x80, 0x2c, 0x10, 0x3e, 0x06, 0x3c, 0x8d, 0xbe, 0x7c, 0x21, 0x7f, 0x3e,
  0x12, 0x5c, 0xe3, 0xbb, 0x71, 0x26, 0x0f, 0xbe, 0xf4, 0x15, 0xeb, 0xbd,
  0x85, 0x79, 0xae, 0xbd, 0x3f, 0xf3, 0x8f, 0x3c, 0x65, 0xb1, 0x98, 0x3e,
  0xdb, 0x7e, 0x38, 0xbd, 0xbf, 0xfa, 0x6a, 0x3e, 0x42, 0x0c, 0x92, 0xbe,
  0xc5, 0x30, 0x97, 0xbd, 0x34, 0xd3, 0x1b, 0x3d, 0xb9, 0x64, 0x5a, 0xbe,
  0x9f, 0xe6, 0x8f, 0xbd, 0x0e, 0x1d, 0x58, 0x3d, 0x03, 0xc5, 0xc5, 0x3c,
  0x1d, 0xdb, 0xb9, 0x3d, 0xf4, 0x83, 0xd5, 0xbd, 0xff, 0x5b, 0x9f, 0xbe,
  0xe8, 0x16, 0x22, 0xbc, 0xd4, 0x65, 0xc4, 0xba, 0x5e, 0x12, 0x7d, 0x3c,
  0x01, 0x33, 0xeb, 0x3d, 0x93, 0x4f, 0x1b, 0x3e, 0x8c, 0x34, 0x57, 0x3e,
  0x6c, 0x82, 0x6c, 0xbe, 0x33, 0x77, 0x47, 0x3d, 0x96, 0x98, 0x39, 0x3e,
  0x19, 0xd6, 0x9f, 0x3e, 0xe3, 0xdb, 0x68, 0x3c, 0x01, 0xb8, 0xa2, 0x3d,
  0xbd, 0x86, 0xe1, 0x3d, 0x68, 0xcd, 0x92, 0x3e, 0xcb, 0xb5, 0x5d, 0xbe,
  0x04, 0xc7, 0x04, 0xbe, 0x79, 0x76, 0x04, 0xbe, 0x51, 0x7e, 0x1c, 0x3e,
  0xe6, 0xb5, 0x4b, 0xbd, 0x59, 0x98, 0xb3, 0x3d, 0x19, 0xd0, 0xad, 0xbc,
  0xad, 0x67, 0xe2, 0xbd, 0x44, 0x66, 0x6e, 0x3d, 0x95, 0x73, 0x98, 0x3d,
  0x5c, 0x5f, 0x51, 0x3d, 0x88, 0x6c, 0xc4, 0x3d, 0x09, 0x76, 0xcb, 0xbd,
  0x7b, 0x72, 0x4a, 0xbc, 0x23, 0xf6, 0xb6, 0xbd, 0x33, 0x01, 0x01, 0x3e,
  0x4b, 0xd8, 0xbb, 0x3d, 0xc7, 0x53, 0x3c, 0xbd, 0x0c, 0xff, 0xbc, 0xbd,
  0x59, 0x81, 0x35, 0xbe, 0x42, 0x04, 0x8b, 0xbe, 0x51, 0xd3, 0xe6, 0xbd,
  0xf0, 0x6f, 0x26, 0xbe, 0x46, 0xc0, 0x11, 0x3e, 0x67, 0xa8, 0x15, 0xbe,
  0xfa, 0xa0, 0xe9, 0x3d, 0x5c, 0x5d, 0x66, 0xbe, 0x04, 0xa4, 0xb5, 0xbc,
  0x12, 0x17, 0xa0, 0xbd, 0x1d, 0x9f, 0x34, 0x3e, 0x98, 0x40, 0xfe, 0xbd,
  0x7b, 0x2f, 0x9f, 0x3d, 0x5f, 0xfa, 0x94, 0x3d, 0x0f, 0x6f, 0xff, 0xbd,
  0x5f, 0x5b, 0xac, 0xbd, 0x88, 0x27, 0x91, 0x3d, 0x63, 0x3e, 0x7d, 0xbe,
  0x4a, 0x87, 0x39, 0xbe, 0xdc, 0xe5, 0x2d, 0xbe, 0x48, 0xc3, 0x85, 0x3d,
  0xeb, 0xec, 0x7e, 0xbe, 0x9d, 0x55, 0xbe, 0xbd, 0x8b, 0x21, 0x67, 0xbe,
  0xcf, 0xce, 0x92, 0xbd, 0xef, 0x2d, 0xdd, 0x3d, 0x34, 0x55, 0xb3, 0xbd,
  0xe3, 0x47, 0x8a, 0xbd, 0x04, 0x2c, 0xf7, 0x3d, 0xc3, 0xbf, 0x02, 0xbe,
  0xc5, 0xb1, 0xe3, 0xbd, 0xeb, 0x7d, 0x53, 0xbd, 0x5a, 0x58, 0x0f, 0xbd,
  0xbd, 0x41, 0x22, 0x3d, 0x01, 0x2e, 0x91, 0x3d, 0xea, 0x27, 0x8b, 0xbe,
  0x12, 0x85, 0x22, 0x3e, 0x75, 0x1b, 0x21, 0x3e, 0xa7, 0xb6, 0x06, 0xbe,
  0x27, 0x2a, 0x2b, 0xbe, 0x6a, 0x00, 0xc1, 0x3d, 0xf6, 0xbc, 0x41, 0x3b,
  0x26, 0xd4, 0x19, 0x3e, 0x27, 0xf6, 0x52, 0xbe, 0x61, 0x9c, 0x55, 0xbe,
  0xe0, 0xc6, 0x7e, 0xbd, 0x8a, 0x67, 0x85, 0xbe, 0x9a, 0xca, 0x25, 0xbd,
  0x66, 0x8b, 0xa8, 0x3d, 0x34, 0x6b, 0xf9, 0x3c, 0xc0, 0x57, 0xae, 0xbd,
  0xbd, 0x78, 0x80, 0xbe, 0x7b, 0x34, 0x5e, 0x3c, 0xd6, 0xa6, 0xe9, 0xbd,
  0xc4, 0xe2, 0x8d, 0xbc, 0x7b, 0x7b, 0x08, 0x3e, 0x80, 0x96, 0x24, 0xbe,
  0x67, 0x2a, 0xa0, 0xbd, 0x16, 0x2f, 0x0f, 0x3e, 0x65, 0x8d, 0x2d, 0xbe,
  0x25, 0x54, 0xcb, 0x3d, 0x2e, 0xc9, 0xfb, 0x3c, 0x80, 0xde, 0x3e, 0xbd,
  0x64, 0x90, 0x40, 0x3e, 0x5f, 0xe6, 0x54, 0xbe, 0x31, 0xf4, 0x74, 0xbc,
  0xaf, 0xdb, 0x52, 0xbe, 0x3f, 0xd7, 0xc3, 0xbd, 0x41, 0x19, 0x27, 0xbd,
  0xeb, 0xb8, 0x29, 0xbe, 0x60, 0xc2, 0xb7, 0x3c, 0x92, 0x29, 0x3a, 0x3c,
  0x66, 0xa1, 0x36, 0x3e, 0x8b, 0x18, 0xbd, 0xbd, 0xa9, 0x8f, 0xb6, 0xba,
  0x8c, 0x5d, 0xac, 0xbd, 0x33, 0x6d, 0x7e, 0xbe, 0xad, 0x48, 0x72, 0xbe,
  0x58, 0x1f, 0x01, 0x3e, 0xc5, 0xd0, 0x52, 0x3e, 0x75, 0x5b, 0x85, 0xbe,
  0x2f, 0x60, 0x89, 0xbd, 0x6b, 0x6f, 0xe6, 0x3d, 0x02, 0x7e, 0xf8, 0xbd,
  0xbc, 0xff, 0x83, 0xbe, 0xfd, 0xc5, 0xe1, 0x3d, 0xaf, 0xe3, 0x6f, 0xbe,
  0x2a, 0xe2, 0x84, 0xbd, 0xa6, 0x77, 0x1a, 0x3e, 0xfa, 0xb7, 0x65, 0x3d,
  0x42, 0xfd, 0x45, 0xbd, 0xc9, 0xb3, 0x2d, 0xbe, 0x22, 0x16, 0xb8, 0x3d,
  0xb1, 0x21, 0xc5, 0xbd, 0xb1, 0xd8, 0x42, 0xbd, 0x52, 0x8b, 0x46, 0x3e,
  0xbb, 0x04, 0x89, 0xbe, 0x2e, 0x10, 0x85, 0x3d, 0xec, 0x9c, 0x0e, 0x3e,
  0x64, 0x32, 0x5a, 0xbb, 0x67, 0x68, 0x41, 0xbd, 0x23, 0x9b, 0xdc, 0x3d,
  0x9a, 0x9e, 0x4c, 0xbe, 0xf6, 0x15, 0x3e, 0xbe, 0x65, 0x96, 0x62, 0xbe,
  0xf5, 0x17, 0xe9, 0xbc, 0x74, 0x0c, 0xc8, 0x3d, 0x47, 0x59, 0x9b, 0xbd,
  0xba, 0x05, 0xbb, 0xbd, 0x2d, 0xee, 0xef, 0xbc, 0xbe, 0xc3, 0xc2, 0x3c,
  0x61, 0xda, 0xee, 0x3d, 0x22, 0xef, 0xe0, 0xbd, 0xeb, 0x5a, 0x0c, 0xbe,
  0xcb, 0x20, 0xff, 0xbd, 0x4a, 0xde, 0x8e, 0x3d, 0x1c, 0x49, 0x16, 0x3d,
  0xfc, 0xa9, 0x00, 0x3e, 0x65, 0x9f, 0xed, 0xbd, 0xbc, 0x5e, 0x92, 0x3d,
  0xfe, 0x4d, 0x54, 0x3d, 0x46, 0x51, 0xdb, 0xbd, 0x85, 0x1f, 0x4f, 0xbe,
  0x79, 0x63, 0x82, 0xbe, 0x3c, 0x3a, 0x71, 0x3d, 0x24, 0x20, 0x6a, 0xbe,
  0x54, 0xac, 0x01, 0xbd, 0x2d, 0xef, 0x4a, 0x3e, 0x56, 0xba, 0x82, 0xbe,
  0xc4, 0x15, 0xa1, 0xbc, 0xc8, 0xc0, 0x2f, 0x3e, 0xb1, 0xca, 0xa4, 0x3d,
  0x0a, 0x0f, 0xdc, 0x3d, 0x4a, 0x69, 0x59, 0x3d, 0xdc, 0xf6, 0xf7, 0x3d,
  0x17, 0x3b, 0xa5, 0x3d, 0x1e, 0x27, 0x52, 0xbe, 0x34, 0x93, 0x87, 0xbe,
  0x64, 0x40, 0x59, 0x3d, 0xba, 0xd9, 0x57, 0xbe, 0x8e, 0xd7, 0x50, 0xbe,
  0xb4, 0xfb, 0x75, 0xbe, 0x27, 0xa1, 0xcd, 0xbd, 0x3b, 0x77, 0x80, 0xbd,
  0x2f, 0xe8, 0x85, 0xbe, 0x18, 0xd8, 0xf6, 0xbd, 0x51, 0x87, 0x00, 0x3e,
  0x5a, 0x2e, 0x20, 0xbe, 0x44, 0x13, 0xf7, 0xbd, 0xa2, 0x1a, 0x33, 0x3e,
  0x2b, 0xa4, 0xe7, 0x3d, 0x93, 0x71, 0x3d, 0x3d, 0xda, 0x54, 0x58, 0xbe,
  0x23, 0x40, 0xf6, 0xbc, 0x9f, 0x7c, 0xeb, 0xbd, 0x2d, 0xa8, 0x86, 0xbd,
  0x60, 0x0c, 0x21, 0x3e, 0xaa, 0x2c, 0x90, 0x3d, 0x7a, 0x44, 0xd2, 0x3d,
  0x60, 0x99, 0xbf, 0xbd, 0xad, 0x87, 0x31, 0xbe, 0x51, 0xb7, 0x07, 0xbe,
  0x85, 0xee, 0x45, 0xbc, 0x2a, 0x7a, 0x7c, 0xbe, 0xe2, 0xc7, 0x4a, 0x3e,
  0x36, 0xb5, 0x2e, 0x3e, 0xef, 0x82, 0xf7, 0x3b, 0x59, 0xa4, 0xc3, 0xbd,
  0xd1, 0x62, 0xc6, 0xbd, 0x3f, 0xb7, 0xb3, 0xbb, 0xca, 0x96, 0x69, 0xbe,
  0xdc, 0x5a, 0x6a, 0xbe, 0x7b, 0x8a, 0xf2, 0xbb, 0x1e, 0x04, 0x75, 0xbd,
  0x42, 0xac, 0x72, 0xbe, 0xd4, 0x3f, 0x52, 0xbd, 0xab, 0x58, 0xd6, 0x3d,
  0x52, 0x49, 0x05, 0x3d, 0xa8, 0x57, 0x10, 0x3e, 0xc2, 0xce, 0xa7, 0xbd,
  0x6b, 0x9d, 0x36, 0xbe, 0x10, 0xe8, 0xdc, 0x3c, 0xff, 0x9b, 0x78, 0xbe,
  0x8a, 0xb5, 0x73, 0xbe, 0x52, 0x55, 0xe1, 0xbd, 0x1c, 0x9e, 0xc9, 0x3d,
  0x91, 0xb5, 0x50, 0x3c, 0x6a, 0xcb, 0xcb, 0x3d, 0xd5, 0x17, 0x60, 0xbe,
  0x69, 0x75, 0x74, 0xbe, 0x01, 0xc5, 0xc4, 0x3d, 0x18, 0x9f, 0x38, 0x3e,
  0xae, 0x48, 0xc5, 0xbd, 0x1c, 0x5c, 0x13, 0xbe, 0xef, 0x79, 0x15, 0x3e,
  0x3b, 0xac, 0xd3, 0xbd, 0x2c, 0x97, 0x68, 0xbe, 0xd4, 0xc9, 0xbd, 0x3c,
  0x53, 0xed, 0xc1, 0x3d, 0x46, 0xdc, 0x23, 0xbe, 0xa8, 0xb9, 0xbb, 0x3c,
  0x89, 0x1f, 0xc9, 0xbd, 0xf4, 0x17, 0xec, 0xbd, 0x8a, 0x2c, 0x8b, 0xbe,
  0x3b, 0xf1, 0xab, 0x3c, 0x9b, 0x8d, 0x28, 0xbe, 0x79, 0x3d, 0xff, 0xbd,
  0xc5, 0xe2, 0x3a, 0x3e, 0x80, 0x4f, 0x2a, 0xbe, 0xc9, 0xc4, 0x79, 0xbe,
  0xd1, 0xd9, 0x19, 0x3c, 0xf6, 0x7f, 0x43, 0xbe, 0xb7, 0xb8, 0xa8, 0xbe,
  0x63, 0xfc, 0xa1, 0x3e, 0xbb, 0x4f, 0x3d, 0x3e, 0xfe, 0xce, 0xd4, 0xbe,
  0x1e, 0xc0, 0x93, 0xbe, 0x9c, 0x0e, 0x3d, 0x3d, 0x1d, 0xa8, 0xc1, 0xbd,
  0x29, 0x4e, 0x06, 0xbe, 0xbf, 0xde, 0x85, 0xbe, 0xfd, 0x5a, 0x6c, 0xbe,
  0xa0, 0xdd, 0xe5, 0x3e, 0x38, 0x01, 0x99, 0xbe, 0xef, 0x66, 0xaa, 0xbd,
  0x7c, 0x33, 0x9a, 0xbe, 0xd1, 0xa1, 0x2c, 0xbe, 0x50, 0xf8, 0x25, 0xbe,
  0x6f, 0x85, 0xe1, 0xbc, 0xcd, 0x1e, 0xc8, 0x3d, 0x7a, 0xc0, 0x84, 0x3e,
  0xa3, 0x02, 0x2a, 0xbe, 0x4c, 0xf9, 0x82, 0xbe, 0x62, 0x99, 0xa1, 0x3d,
  0xdd, 0xbd, 0x6a, 0x3e, 0xd8, 0x75, 0x7d, 0xbe, 0xaa, 0x90, 0x50, 0x3e,
  0xcc, 0x8d, 0x22, 0xbe, 0xcd, 0x88, 0xb4, 0x3d, 0x2b, 0x9f, 0xa6, 0xbd,
  0x03, 0xbd, 0x8b, 0xbd, 0xfc, 0x07, 0x0c, 0xbe, 0xd1, 0x15, 0x76, 0x3e,
  0x62, 0x04, 0x17, 0xbd, 0xbc, 0x82, 0x18, 0x3e, 0x2f, 0x20, 0x42, 0x3d,
  0x23, 0x23, 0x7b, 0x3e, 0x8a, 0x10, 0xb9, 0xbd, 0x2b, 0x6c, 0xab, 0xba,
  0x13, 0xb2, 0xcc, 0x3d, 0x1d, 0x4b, 0x02, 0x3f, 0xd0, 0x1f, 0x2d, 0x3e,
  0x70, 0x24, 0x1c, 0x3d, 0x6f, 0x5b, 0x9c, 0xbe, 0x7f, 0x37, 0xd4, 0x3d,
  0x70, 0xe3, 0x91, 0x3e, 0xf5, 0x54, 0x4f, 0x3c, 0x11, 0xcd, 0x98, 0xbd,
  0xac, 0xf8, 0x61, 0x3e, 0x1b, 0x71, 0xe9, 0x3d, 0x34, 0x58, 0xbf, 0x3e,
  0xef, 0x54, 0x25, 0x3e, 0x98, 0xdd, 0x60, 0x3e, 0x69, 0x58, 0x8f, 0xbe,
  0xd5, 0xd0, 0x8e, 0xbe, 0x59, 0x0f, 0x9b, 0x3e, 0x9f, 0x7f, 0xb1, 0x3e,
  0x3d, 0x34, 0x15, 0x3e, 0x53, 0x79, 0xf9, 0x3d, 0xef, 0xfe, 0x72, 0xbe,
  0x6a, 0xb4, 0xa1, 0x3e, 0x69, 0x90, 0xce, 0x3d, 0xd7, 0x5e, 0x6b, 0x3d,
  0x33, 0x4b, 0x3c, 0x3e, 0x73, 0xac, 0x1a, 0x3e, 0x8e, 0xdc, 0x27, 0xbc,
  0x7c, 0x06, 0x70, 0xbe, 0x12, 0xb1, 0x66, 0x3e, 0xd1, 0x3d, 0x1a, 0x3e,
  0xdb, 0x6c, 0x75, 0xbe, 0x72, 0x3b, 0x18, 0xbe, 0xf3, 0xcf, 0x69, 0x3e,
  0xcd, 0xb3, 0x0a, 0x3e, 0x3f, 0xcb, 0xc0, 0xbd, 0x38, 0x9e, 0xda, 0xbe,
  0x71, 0x3f, 0x97, 0xbe, 0xdb, 0x8a, 0xbf, 0x3e, 0x0c, 0xff, 0xd0, 0x3d,
  0x62, 0x3b, 0xca, 0xbc, 0xf1, 0x57, 0x46, 0xbc, 0x6c, 0x48, 0xa3, 0xbd,
  0xed, 0xb5, 0x9c, 0xbd, 0xbf, 0xa5, 0xf2, 0xbe, 0x2e, 0x67, 0x1d, 0x3f,
  0x6b, 0x02, 0x0e, 0x3e, 0x3f, 0x23, 0x98, 0xbe, 0xa8, 0x79, 0x8e, 0xbd,
  0x1f, 0xc2, 0x53, 0x3e, 0x09, 0x00, 0x50, 0x3e, 0xbc, 0x6a, 0x85, 0xbe,
  0xee, 0x1b, 0x85, 0xbe, 0xe4, 0x41, 0x9e, 0xbe, 0xc3, 0x70, 0x8a, 0x3e,
  0x48, 0x6f, 0x78, 0x3c, 0xb2, 0x55, 0x8b, 0xbd, 0x2b, 0x74, 0x57, 0xbe,
  0x7f, 0x86, 0x3a, 0xbd, 0x14, 0x3f, 0xf6, 0x3c, 0x76, 0x84, 0x93, 0xbd,
  0x88, 0xac, 0x5b, 0x3e, 0x3f, 0xb0, 0x0f, 0x3d, 0x76, 0x7d, 0x43, 0xbe,
  0x84, 0x04, 0x1c, 0x3e, 0xef, 0x7d, 0x80, 0x3d, 0xd4, 0x61, 0x90, 0x3e,
  0x71, 0x0a, 0x4d, 0xbe, 0x71, 0x40, 0x11, 0xbe, 0xe1, 0xc1, 0x58, 0xbe,
  0xff, 0x00, 0x1c, 0x3e, 0x97, 0xc6, 0x39, 0xbe, 0x38, 0x35, 0xf1, 0xbc,
  0x59, 0x80, 0x34, 0xbb, 0x1b, 0xfe, 0xd1, 0xbe, 0x66, 0xd5, 0x3b, 0xbd,
  0x5c, 0x62, 0x99, 0xbe, 0x03, 0xdb, 0xa4, 0xbe, 0xcd, 0x1f, 0x02, 0xbf,
  0xbe, 0x7d, 0x92, 0xbc, 0x5c, 0x96, 0x1b, 0x3f, 0x68, 0xd8, 0x4b, 0xbf,
  0xac, 0xbf, 0xbc, 0xbc, 0xf4, 0x88, 0x7e, 0x3c, 0xb1, 0x83, 0x48, 0xbe,
  0xc8, 0xcb, 0xab, 0x3e, 0xdd, 0x24, 0xb1, 0xbe, 0x39, 0x9a, 0x52, 0x3e,
  0x14, 0x03, 0x31, 0x3c, 0x3f, 0xeb, 0x3c, 0xbe, 0x37, 0xbe, 0x0e, 0x3d,
  0xe8, 0x1f, 0x6a, 0x3d, 0x47, 0xf0, 0xfe, 0xbd, 0xbd, 0x15, 0xa5, 0x3e,
  0x29, 0xb9, 0xc7, 0xbe, 0xe5, 0xf1, 0xe9, 0x3e, 0xb9, 0xe2, 0x54, 0xbe,
  0xb1, 0x77, 0x00, 0xbf, 0x3a, 0x47, 0x9d, 0xbe, 0xc9, 0x98, 0x6e, 0x3d,
  0xcf, 0xb3, 0x0c, 0xbd, 0x28, 0x9a, 0x38, 0x3e, 0x34, 0x3b, 0xf7, 0xbe,
  0xf6, 0xb3, 0x12, 0x3e, 0x14, 0xc1, 0xb2, 0x3d, 0xee, 0xb2, 0xf7, 0x3d,
  0xbd, 0xc6, 0xdd, 0x3d, 0x06, 0x54, 0xb6, 0x3d, 0x4d, 0x22, 0x8a, 0x3d,
  0x78, 0x1d, 0xd0, 0x3e, 0x74, 0xa4, 0xab, 0xbe, 0x8a, 0x3e, 0xc5, 0x3e,
  0x24, 0x76, 0x94, 0x3d, 0xe7, 0xac, 0x40, 0xbe, 0xfc, 0x9c, 0x76, 0xbe,
  0x87, 0x80, 0x55, 0xbc, 0x9c, 0x16, 0x0f, 0xbe, 0x47, 0xbc, 0xde, 0x3d,
  0x6a, 0xde, 0xd4, 0xbe, 0xfc, 0x77, 0x6c, 0x3e, 0x7a, 0x50, 0x68, 0x3d,
  0x66, 0x12, 0xe7, 0x3d, 0x72, 0xe0, 0x81, 0x3e, 0x73, 0x10, 0x28, 0x3d,
  0xaf, 0x62, 0x7f, 0xbe, 0x85, 0x6b, 0xab, 0xbb, 0xea, 0x00, 0x4f, 0xbe,
  0x67, 0x8e, 0xd4, 0x3e, 0xb2, 0xd7, 0xad, 0x3e, 0x5c, 0xdb, 0x47, 0xbe,
  0xc4, 0x72, 0x74, 0xbd, 0xc1, 0xb1, 0xcf, 0x3d, 0xfc, 0x90, 0xdf, 0xbd,
  0x3d, 0x7e, 0xc5, 0x3c, 0x24, 0x27, 0x1c, 0xbe, 0x15, 0x8f, 0x1a, 0x3d,
  0xf5, 0x7b, 0x43, 0x3d, 0xa7, 0x15, 0x03, 0x3e, 0x9c, 0xbd, 0xbc, 0x3e,
  0xdd, 0x4f, 0xb7, 0x3d, 0x08, 0x04, 0xf0, 0x3c, 0xa4, 0x5f, 0x8f, 0xbd,
  0xb4, 0x13, 0x97, 0xbe, 0x19, 0x8f, 0xbb, 0x3e, 0xcd, 0x35, 0x35, 0x3d,
  0xa9, 0x21, 0xa5, 0xbe, 0x8b, 0xdc, 0x8e, 0xbe, 0xcb, 0x5e, 0x1f, 0x3c,
  0x3a, 0x42, 0xa4, 0xbe, 0xd6, 0x33, 0x1d, 0x3e, 0x49, 0x16, 0xad, 0xbe,
  0x6d, 0xad, 0x56, 0x3d, 0x77, 0x54, 0x15, 0x3d, 0x19, 0x29, 0x9e, 0x3d,
  0x49, 0x18, 0xb9, 0xbc, 0x12, 0x7b, 0xc1, 0x3c, 0xa3, 0xae, 0x61, 0xbe,
  0x5e, 0x82, 0x89, 0xbe, 0x11, 0x1d, 0xbf, 0xbe, 0x96, 0x54, 0x8d, 0x3e,
  0x60, 0xb2, 0x20, 0x3c, 0x6e, 0x82, 0x96, 0xbe, 0x52, 0xa3, 0x09, 0xbf,
  0x00, 0x2c, 0xea, 0xbd, 0xcd, 0x62, 0x46, 0xbe, 0x9d, 0x30, 0x8f, 0x3c,
  0xc4, 0xf0, 0x99, 0xbe, 0xcf, 0xe6, 0x60, 0x3e, 0x4c, 0xcd, 0x64, 0x3d,
  0x10, 0xce, 0xfe, 0x3d, 0x99, 0xcf, 0x22, 0xbe, 0x3c, 0xf4, 0xff, 0xbd,
  0xfb, 0xe1, 0x15, 0x3c, 0xd1, 0x5d, 0x41, 0xbe, 0x2d, 0xf7, 0x5e, 0xbe,
  0xe8, 0xaa, 0x36, 0xbd, 0xfc, 0xa2, 0xf8, 0x3d, 0xa3, 0x68, 0x9c, 0xbd,
  0xc8, 0x89, 0x5d, 0xbe, 0x96, 0xdf, 0x69, 0xbd, 0x1a, 0x02, 0x03, 0xbf,
  0x71, 0x25, 0xdb, 0x3e, 0x62, 0x27, 0x3a, 0xbe, 0x0b, 0x50, 0xa5, 0x3e,
  0x94, 0x68, 0x89, 0x3c, 0x2b, 0x39, 0x4e, 0x3d, 0x5d, 0xe6, 0x57, 0xbc,
  0x37, 0x6a, 0x26, 0xbe, 0x72, 0xd4, 0xd3, 0x3d, 0x30, 0x7d, 0x0a, 0xbe,
  0x46, 0x0a, 0x29, 0x3d, 0x73, 0x0b, 0xdd, 0xbc, 0x73, 0x83, 0x20, 0xbe,
  0xeb, 0x7a, 0x91, 0x3d, 0xa8, 0x53, 0x29, 0xbe, 0xf0, 0x51, 0xf5, 0xbd,
  0x98, 0x0e, 0xe1, 0xbd, 0x38, 0x6e, 0xc4, 0x3d, 0xf2, 0x20, 0x4d, 0xbe,
  0x69, 0x7a, 0x09, 0xbe, 0x2c, 0x34, 0xdc, 0xbd, 0x76, 0x09, 0x18, 0x3d,
  0xd5, 0x33, 0x5a, 0xbe, 0x65, 0xa0, 0x2e, 0xbe, 0x42, 0x17, 0x8d, 0xbe,
  0x04, 0xc7, 0x79, 0x3d, 0x83, 0xa6, 0x46, 0x3d, 0x6b, 0x9c, 0x6e, 0xbd,
  0xa5, 0xdf, 0xcd, 0xbd, 0x63, 0x86, 0xff, 0x3d, 0x7b, 0x40, 0x82, 0x3d,
  0x34, 0x81, 0x47, 0xbe, 0xc1, 0x27, 0x98, 0x3d, 0x75, 0xb1, 0x8a, 0x3d,
  0xac, 0x24, 0x94, 0xbd, 0x1c, 0xc6, 0xa8, 0x3d, 0xc0, 0x30, 0x87, 0xbe,
  0x59, 0x79, 0x00, 0x3c, 0x23, 0x4b, 0x1c, 0x3d, 0x31, 0x7f, 0x98, 0xbe,
  0xe6, 0x22, 0x38, 0xbd, 0x9f, 0xca, 0xc2, 0xbd, 0x51, 0x86, 0x44, 0x3d,
  0xec, 0xc3, 0xb2, 0xbb, 0x32, 0x6c, 0x8b, 0xbd, 0xe8, 0xb0, 0x64, 0xbe,
  0xfd, 0x95, 0x15, 0x3e, 0xb8, 0xb0, 0x95, 0xbe, 0x5d, 0xaf, 0xb3, 0xbd,
  0x3f, 0x8c, 0x88, 0x3d, 0xf2, 0x10, 0xe6, 0x3c, 0x92, 0x2b, 0x21, 0xbd,
  0xcb, 0xe0, 0xaa, 0xbd, 0xb1, 0xeb, 0x90, 0xbe, 0xe7, 0x57, 0xa6, 0xbd,
  0xec, 0xd3, 0x93, 0xbe, 0xaf, 0x4e, 0x8e, 0x3d, 0x6a, 0x04, 0x65, 0xbb,
  0x2b, 0xd1, 0x45, 0x3e, 0x2c, 0x6c, 0x0b, 0x3e, 0xf9, 0x2a, 0x20, 0xbd,
  0xe4, 0x3a, 0x5d, 0xbe, 0xa3, 0xc6, 0x74, 0xbc, 0x36, 0x3d, 0x53, 0xbe,
  0xc9, 0xd4, 0x38, 0x3d, 0xff, 0x3c, 0xd3, 0xbd, 0x12, 0x47, 0x03, 0xbb,
  0x37, 0x62, 0xff, 0xbd, 0x87, 0x24, 0xd9, 0xbd, 0x11, 0x67, 0x4e, 0xbe,
  0x0e, 0xe1, 0xe9, 0x3d, 0x6e, 0x82, 0xc2, 0xbe, 0x5a, 0x7a, 0x92, 0xbd,
  0xc5, 0x9c, 0x5e, 0xbe, 0x36, 0x86, 0x04, 0x3d, 0x52, 0x1a, 0x48, 0xbe,
  0xa5, 0x21, 0x40, 0x3e, 0x66, 0x74, 0xc5, 0xbd, 0x1e, 0x13, 0x0e, 0x3c,
  0xa0, 0x0e, 0xef, 0xbd, 0x85, 0x86, 0x50, 0x3d, 0xa6, 0xba, 0x43, 0xbc,
  0xd0, 0x8c, 0x01, 0x3e, 0x72, 0xa8, 0x11, 0x3e, 0xd9, 0xbf, 0x95, 0x3d,
  0x3c, 0x4c, 0x72, 0xbe, 0xd9, 0xa8, 0x8a, 0xbd, 0xef, 0xa0, 0xb0, 0xbe,
  0x55, 0xd8, 0x5e, 0x3d, 0x2b, 0x7c, 0xc8, 0x3d, 0xa0, 0xb1, 0x32, 0x3e,
  0x7f, 0xa4, 0x0f, 0xbe, 0x07, 0x1a, 0x43, 0x3d, 0xce, 0x04, 0x2d, 0xbd,
  0x01, 0xe7, 0x09, 0x3d, 0xd4, 0x4b, 0x17, 0x3c, 0x80, 0x30, 0x62, 0xbe,
  0xda, 0x12, 0x31, 0xbd, 0x1c, 0xa8, 0x67, 0xbe, 0x7f, 0x16, 0x65, 0x3e,
  0x8c, 0xbd, 0x0b, 0xbe, 0xc7, 0x8d, 0x4b, 0x3c, 0x36, 0x98, 0xd8, 0x3d,
  0x29, 0xbc, 0x5e, 0xbe, 0x31, 0xcd, 0xaa, 0x3b, 0x83, 0xc3, 0x57, 0xbe,
  0x00, 0x65, 0x44, 0xbe, 0x98, 0xda, 0xe1, 0xbd, 0xbb, 0x2f, 0x41, 0xbd,
  0xa7, 0x2e, 0x41, 0xbe, 0xdd, 0x9f, 0x66, 0xbc, 0x41, 0xab, 0x94, 0xbd,
  0xa2, 0x9a, 0xa9, 0x3c, 0x50, 0x08, 0x1d, 0xbe, 0x91, 0x09, 0x05, 0x3e,
  0xa0, 0xfb, 0x1d, 0x3e, 0xf3, 0xd8, 0x14, 0x3d, 0x74, 0x9d, 0x2b, 0xbe,
  0x82, 0x7d, 0xfa, 0xbd, 0xed, 0xdf, 0x51, 0xbd, 0x01, 0x2b, 0xd8, 0xbd,
  0xee, 0x3a, 0xbb, 0x3d, 0x3b, 0x56, 0x9a, 0x3b, 0xd0, 0x75, 0x67, 0xbe,
  0xc2, 0x13, 0x2e, 0xbd, 0xd3, 0x54, 0xd4, 0xbd, 0x18, 0x94, 0xb1, 0xbd,
  0xeb, 0x1d, 0xc6, 0x3d, 0x45, 0xb7, 0x86, 0xbc, 0xe1, 0xa6, 0x37, 0xbe,
  0x6a, 0x94, 0x50, 0xbd, 0x05, 0x1f, 0xcb, 0x3c, 0x55, 0x53, 0xce, 0x3c,
  0xba, 0xbe, 0x69, 0x3c, 0x1e, 0x52, 0x7c, 0xbe, 0x73, 0x91, 0xac, 0xbe,
  0xa5, 0xb9, 0x4e, 0xbd, 0x77, 0x47, 0x00, 0xbe, 0xdc, 0xfa, 0xc0, 0x3d,
  0x06, 0x66, 0xa9, 0xbd, 0xbe, 0x2e, 0xca, 0xbd, 0xe0, 0x0d, 0xb8, 0x3d,
  0xee, 0x54, 0x8d, 0x3d, 0x00, 0xc0, 0x0c, 0xbe, 0xca, 0x13, 0xb9, 0x3d,
  0x9f, 0xda, 0xed, 0xba, 0x2d, 0xe7, 0x87, 0x39, 0x8d, 0x18, 0x48, 0xbe,
  0x74, 0x68, 0x5c, 0xbe, 0x04, 0x79, 0x14, 0xbe, 0x90, 0x6c, 0x6e, 0xbe,
  0xa0, 0x20, 0x74, 0xbe, 0x0c, 0x2b, 0xdb, 0xbb, 0xcb, 0x22, 0x7b, 0xbe,
  0xac, 0x9a, 0x95, 0xbd, 0x55, 0xa6, 0x76, 0xbd, 0xf1, 0xd2, 0xd7, 0xbd,
  0x97, 0xa3, 0x4d, 0x3d, 0x0c, 0xec, 0x69, 0x3d, 0x9f, 0x11, 0xd6, 0xbd,
  0x77, 0x28, 0x1e, 0x3d, 0xe7, 0x1e, 0x41, 0xbe, 0x01, 0x90, 0xd8, 0xbd,
  0x8f, 0x36, 0x9e, 0x3b, 0x3b, 0xd8, 0x91, 0xbe, 0x74, 0x78, 0x80, 0x3c,
  0x3e, 0xb8, 0x1f, 0xbe, 0xa0, 0xc3, 0x75, 0xbe, 0xbf, 0x88, 0x78, 0xbd,
  0xb1, 0x98, 0xec, 0x3b, 0x18, 0x3e, 0xa3, 0x3c, 0xaa, 0x74, 0x2e, 0xbd,
  0xfa, 0xac, 0x80, 0xbe, 0x7a, 0x7e, 0xe7, 0x3d, 0x8e, 0xf0, 0x23, 0xbe,
  0x35, 0x20, 0x59, 0xbc, 0xab, 0xd2, 0x16, 0xbe, 0xb2, 0x12, 0x0b, 0xbe,
  0x73, 0x1c, 0xe3, 0xbd, 0xf0, 0xeb, 0x5b, 0x3d, 0x66, 0x8a, 0x98, 0xbe,
  0x96, 0x9c, 0x36, 0xbe, 0xf5, 0x27, 0x1e, 0xbe, 0x20, 0x0e, 0x1f, 0xbc,
  0x76, 0xc2, 0xcf, 0xbd, 0x94, 0x2b, 0x87, 0x3b, 0x24, 0xf2, 0x27, 0xbe,
  0xda, 0x3f, 0x0c, 0x3e, 0x81, 0x52, 0x6f, 0x3d, 0xb6, 0xaa, 0xec, 0x3d,
  0x13, 0x9b, 0x11, 0xbe, 0x6d, 0x5d, 0xe3, 0xbd, 0x54, 0xc9, 0x10, 0x3e,
  0x8f, 0x97, 0x39, 0x3c, 0xd7, 0xd9, 0x69, 0x3d, 0x33, 0x36, 0xf3, 0xbd,
  0xbe, 0xad, 0xdb, 0xbc, 0xc1, 0x44, 0x45, 0xbe, 0x35, 0xa8, 0x3e, 0xbe,
  0x07, 0xdc, 0x26, 0xbe, 0xfb, 0x1f, 0x41, 0x3e, 0xa2, 0x61, 0x0f, 0xbd,
  0x61, 0xea, 0x9d, 0x3d, 0x40, 0xc2, 0x97, 0xbd, 0x2f, 0x20, 0x49, 0xbe,
  0x4b, 0x9d, 0x13, 0xbe, 0x47, 0x65, 0x52, 0xbe, 0x5b, 0xa5, 0xda, 0xbd,
  0x11, 0x5e, 0xe0, 0xbd, 0x70, 0xd9, 0x0c, 0xbe, 0x26, 0xae, 0x4c, 0x3d,
  0xb3, 0x6e, 0xd6, 0x3b, 0xfb, 0xac, 0x94, 0xbe, 0x2e, 0x0e, 0x1c, 0xbe,
  0x1a, 0xfe, 0x36, 0xbe, 0x7f, 0x1d, 0x1f, 0xbe, 0x53, 0x04, 0xc6, 0xbd,
  0xa7, 0x53, 0xde, 0x3d, 0xa7, 0xcf, 0x9d, 0x3c, 0x71, 0xa0, 0x15, 0x3d,
  0xae, 0xeb, 0x1b, 0xbd, 0x15, 0xe9, 0x2b, 0x3e, 0x01, 0x18, 0x52, 0x3d,
  0x0e, 0x44, 0xa3, 0xbd, 0x7d, 0x7f, 0x05, 0x3d, 0x84, 0xa8, 0x1c, 0xbd,
  0x68, 0xaf, 0x4e, 0x3c, 0x41, 0x42, 0x4a, 0xbe, 0x23, 0xc4, 0x29, 0xbd,
  0xe6, 0xc5, 0x45, 0xbd, 0xe2, 0xbf, 0xa7, 0xbe, 0xed, 0xcc, 0x22, 0xbd,
  0x87, 0x84, 0xc0, 0xbe, 0xb9, 0x6f, 0x95, 0xbe, 0x37, 0xae, 0x0b, 0xbf,
  0xcd, 0xc3, 0xcd, 0x3c, 0x7f, 0x5c, 0x06, 0x3f, 0xf8, 0x73, 0x05, 0xbf,
  0xdd, 0xdf, 0x12, 0xbc, 0xdb, 0x5f, 0xb1, 0x3d, 0xf1, 0xd4, 0x2a, 0xbe,
  0x3c, 0xe8, 0xb6, 0x3e, 0x15, 0x4b, 0xad, 0xbe, 0xc3, 0x96, 0x30, 0x3e,
  0x65, 0xa7, 0x26, 0x3d, 0x49, 0xc8, 0xfe, 0xbd, 0x5e, 0xa5, 0xae, 0xbc,
  0xcc, 0x69, 0x4a, 0x3d, 0xd7, 0x92, 0xe6, 0xbd, 0xe6, 0xbc, 0xce, 0x3e,
  0xf3, 0xc0, 0x0c, 0xbf, 0x3c, 0xcd, 0xb9, 0x3e, 0x48, 0xe2, 0x15, 0x3c,
  0x58, 0x0f, 0x75, 0xbe, 0xa0, 0xc2, 0x12, 0xbe, 0x85, 0x44, 0x30, 0x3e,
  0xb0, 0x76, 0x48, 0xbe, 0xf7, 0x21, 0x02, 0x3e, 0x2d, 0x92, 0x34, 0xbf,
  0xf7, 0x47, 0xb8, 0x3e, 0x1c, 0x2a, 0x87, 0x3d, 0x4a, 0x2f, 0x19, 0x3e,
  0xce, 0x5b, 0x6d, 0x3e, 0x56, 0x24, 0xb6, 0x3d, 0x32, 0x5f, 0x21, 0x3b,
  0x84, 0x80, 0xa8, 0x3e, 0x14, 0x21, 0xbd, 0xbe, 0xc4, 0xb3, 0x8a, 0x3e,
  0x55, 0x47, 0x0b, 0x3d, 0x64, 0x12, 0x0b, 0x3d, 0x21, 0xd1, 0x95, 0xbe,
  0x08, 0x28, 0x8d, 0x3c, 0xc2, 0x47, 0x92, 0xbd, 0x61, 0xfe, 0xdd, 0x3a,
  0x6d, 0xe9, 0x25, 0xbf, 0x64, 0xc5, 0x32, 0x3e, 0x94, 0x46, 0x8f, 0x3d,
  0x14, 0xb9, 0x00, 0x3e, 0x33, 0x29, 0x46, 0x3e, 0xf3, 0x88, 0x8f, 0x3d,
  0x0a, 0xe1, 0x36, 0xbe, 0xcc, 0xda, 0x7f, 0xbc, 0x6c, 0xca, 0xac, 0xbe,
  0xa2, 0xdd, 0x03, 0x3f, 0x54, 0xe5, 0x37, 0xbd, 0x45, 0xcf, 0x5f, 0xbd,
  0x71, 0xdb, 0x11, 0xbe, 0xa0, 0xfb, 0xa9, 0x3c, 0x8e, 0x4e, 0xcc, 0xbe,
  0xa9, 0x9c, 0x30, 0x3e, 0x6f, 0x4f, 0xd2, 0xbe, 0x3c, 0xda, 0x26, 0x3e,
  0xbc, 0x1d, 0xf6, 0x3c, 0xe3, 0x81, 0xf7, 0x3d, 0x85, 0x55, 0x46, 0x3e,
  0x5a, 0x3d, 0x15, 0x3d, 0x74, 0xc8, 0xa9, 0xbc, 0xa3, 0x68, 0x38, 0x3d,
  0x73, 0xae, 0x09, 0xbf, 0x86, 0x85, 0x36, 0x3e, 0x36, 0xc2, 0x05, 0x3e,
  0x5a, 0x74, 0x66, 0xbd, 0xdd, 0xd3, 0x96, 0xbd, 0x94, 0xbc, 0x9f, 0x3c,
  0x77, 0x45, 0x90, 0xbe, 0x56, 0x66, 0x42, 0x3d, 0xd3, 0x79, 0xac, 0xbe,
  0xe1, 0x92, 0x4c, 0x3d, 0xb4, 0x5a, 0x29, 0x3d, 0xed, 0x6d, 0xac, 0x3d,
  0xdc, 0x3e, 0xd1, 0x3d, 0xde, 0x40, 0x84, 0x3b, 0xf2, 0xc9, 0x73, 0xbe,
  0x07, 0x31, 0x6d, 0xbe, 0x3b, 0x3a, 0xea, 0xbe, 0x28, 0xa8, 0x11, 0x3e,
  0x75, 0x43, 0x45, 0x3d, 0x2d, 0xc9, 0x5e, 0xbe, 0x1d, 0xd7, 0xf3, 0xbe,
  0x5e, 0x4d, 0xca, 0xbd, 0xf5, 0x26, 0x51, 0xbe, 0x17, 0xa1, 0x82, 0x3e,
  0xa4, 0x2d, 0xb4, 0xbe, 0x64, 0xe5, 0x0a, 0x3e, 0xf1, 0x8e, 0xef, 0x3c,
  0xfe, 0xfa, 0xac, 0x3d, 0x97, 0x13, 0xed, 0xbd, 0x24, 0x1b, 0xf7, 0xbd,
  0xd6, 0x50, 0x9d, 0x3d, 0xdb, 0x3a, 0x03, 0xbe, 0xf6, 0x83, 0x1c, 0xbe,
  0xfc, 0x2f, 0x14, 0xbe, 0x59, 0x39, 0x5e, 0x3e, 0x4b, 0xe4, 0x82, 0xbd,
  0x9d, 0x6b, 0xd6, 0xbd, 0x4e, 0x5b, 0xc1, 0x3c, 0xef, 0xe8, 0x8e, 0xbe,
  0x43, 0x88, 0xa0, 0x3e, 0x66, 0x5e, 0x0d, 0xbe, 0xd9, 0x58, 0x79, 0x3e,
  0x2f, 0x54, 0x40, 0x3b, 0x6b, 0xeb, 0x82, 0x3d, 0x4a, 0xfe, 0xff, 0xff,
  0x10, 0x00, 0x00, 0x00, 0x05, 0x00, 0x00, 0x00, 0x14, 0x00, 0x00, 0x00,
  0x2c, 0x00, 0x00, 0x00, 0x02, 0x00, 0x00, 0x00, 0x10, 0x00, 0x00, 0x00,
  0x70, 0x00, 0x00, 0x00, 0x17, 0x00, 0x00, 0x00, 0x73, 0x65, 0x71, 0x75,
  0x65, 0x6e, 0x74, 0x69, 0x61, 0x6c, 0x2f, 0x64, 0x65, 0x6e, 0x73, 0x65,
  0x2f, 0x4d, 0x61, 0x74, 0x4d, 0x75, 0x6c, 0x00, 0x38, 0xfe, 0xff, 0xff,
  0x2e, 0xff, 0xff, 0xff, 0x04, 0x00, 0x00, 0x00, 0x08, 0x00, 0x00, 0x00,
  0xff, 0xff, 0xff, 0xff, 0x70, 0x00, 0x00, 0x00, 0x00, 0x00, 0x0e, 0x00,
  0x18, 0x00, 0x08, 0x00, 0x07, 0x00, 0x0c, 0x00, 0x10, 0x00, 0x14, 0x00,
  0x0e, 0x00, 0x00, 0x00, 0x00, 0x00, 0x00, 0x02, 0x10, 0x00, 0x00, 0x00,
  0x04, 0x00, 0x00, 0x00, 0x10, 0x00, 0x00, 0x00, 0x2c, 0x00, 0x00, 0x00,
  0x01, 0x00, 0x00, 0x00, 0x02, 0x00, 0x00, 0x00, 0x18, 0x00, 0x00, 0x00,
  0x73, 0x65, 0x71, 0x75, 0x65, 0x6e, 0x74, 0x69, 0x61, 0x6c, 0x2f, 0x66,
  0x6c, 0x61, 0x74, 0x74, 0x65, 0x6e, 0x2f, 0x43, 0x6f, 0x6e, 0x73, 0x74,
  0x00, 0x00, 0x00, 0x00, 0xa0, 0xfe, 0xff, 0xff, 0x96, 0xff, 0xff, 0xff,
  0x04, 0x00, 0x00, 0x00, 0x0c, 0x00, 0x00, 0x00, 0xe3, 0x3c, 0x8d, 0x3e,
  0x7a, 0xba, 0xd1, 0xbf, 0x89, 0x26, 0x83, 0x3e, 0x0a, 0xff, 0xff, 0xff,
  0x10, 0x00, 0x00, 0x00, 0x03, 0x00, 0x00, 0x00, 0x10, 0x00, 0x00, 0x00,
  0x3c, 0x00, 0x00, 0x00, 0x01, 0x00, 0x00, 0x00, 0x03, 0x00, 0x00, 0x00,
  0x29, 0x00, 0x00, 0x00, 0x73, 0x65, 0x71, 0x75, 0x65, 0x6e, 0x74, 0x69,
  0x61, 0x6c, 0x2f, 0x64, 0x65, 0x6e, 0x73, 0x65, 0x5f, 0x31, 0x2f, 0x42,
  0x69, 0x61, 0x73, 0x41, 0x64, 0x64, 0x2f, 0x52, 0x65, 0x61, 0x64, 0x56,
  0x61, 0x72, 0x69, 0x61, 0x62, 0x6c, 0x65, 0x4f, 0x70, 0x00, 0x00, 0x00,
  0x60, 0xff, 0xff, 0xff, 0x00, 0x00, 0x06, 0x00, 0x08, 0x00, 0x04, 0x00,
  0x06, 0x00, 0x00, 0x00, 0x04, 0x00, 0x00, 0x00, 0x40, 0x00, 0x00, 0x00,
  0x79, 0x34, 0xe8, 0xbe, 0x0e, 0x39, 0xbf, 0xbd, 0x59, 0x23, 0xe2, 0xbd,
  0x66, 0xde, 0xf3, 0xbf, 0xb7, 0x08, 0x91, 0xbf, 0x98, 0xfa, 0xb5, 0xbf,
  0x7c, 0xd3, 0x05, 0xbe, 0x0b, 0xa8, 0x37, 0xbe, 0xc8, 0x9e, 0x15, 0xbf,
  0x21, 0xc0, 0x06, 0xbe, 0xdb, 0x41, 0xcc, 0xbd, 0x56, 0xba, 0x42, 0xbf,
  0xe0, 0xe8, 0x35, 0xbc, 0x4a, 0x03, 0x26, 0xbe, 0xb9, 0xf1, 0x3f, 0xbe,
  0xd7, 0x0d, 0x15, 0xbd, 0xae, 0xff, 0xff, 0xff, 0x10, 0x00, 0x00, 0x00,
  0x02, 0x00, 0x00, 0x00, 0x10, 0x00, 0x00, 0x00, 0x3c, 0x00, 0x00, 0x00,
  0x01, 0x00, 0x00, 0x00, 0x10, 0x00, 0x00, 0x00, 0x27, 0x00, 0x00, 0x00,
  0x73, 0x65, 0x71, 0x75, 0x65, 0x6e, 0x74, 0x69, 0x61, 0x6c, 0x2f, 0x64,
  0x65, 0x6e, 0x73, 0x65, 0x2f, 0x42, 0x69, 0x61, 0x73, 0x41, 0x64, 0x64,
  0x2f, 0x52, 0x65, 0x61, 0x64, 0x56, 0x61, 0x72, 0x69, 0x61, 0x62, 0x6c,
  0x65, 0x4f, 0x70, 0x00, 0x04, 0x00, 0x06, 0x00, 0x04, 0x00, 0x00, 0x00,
  0x00, 0x00, 0x0e, 0x00, 0x14, 0x00, 0x04, 0x00, 0x00, 0x00, 0x08, 0x00,
  0x0c, 0x00, 0x10, 0x00, 0x0e, 0x00, 0x00, 0x00, 0x10, 0x00, 0x00, 0x00,
  0x01, 0x00, 0x00, 0x00, 0x1c, 0x00, 0x00, 0x00, 0x2c, 0x00, 0x00, 0x00,
  0x04, 0x00, 0x00, 0x00, 0x01, 0x00, 0x00, 0x00, 0x40, 0x00, 0x00, 0x00,
  0x03, 0x00, 0x00, 0x00, 0x01, 0x00, 0x00, 0x00, 0x0c, 0x00, 0x00, 0x00,
  0x63, 0x6f, 0x6e, 0x76, 0x32, 0x64, 0x5f, 0x69, 0x6e, 0x70, 0x75, 0x74,
  0x00, 0x00, 0x00, 0x00, 0xfc, 0xff, 0xff, 0xff, 0x04, 0x00, 0x04, 0x00,
  0x04, 0x00, 0x00, 0x00
};

unsigned int model_tflite_len = 12316;// Fill the int in `src/model.cc` here